{
  "version": "1.0",
  "truncation": null,
  "padding": null,
  "added_tokens": [
    {
      "id": 0,
      "content": "<UNK>",
      "single_word": false,
      "lstrip": false,
      "rstrip": false,
      "normalized": false,
      "special": true
    },
    {
      "id": 1,
      "content": "<SEP>",
      "single_word": false,
      "lstrip": false,
      "rstrip": false,
      "normalized": false,
      "special": true
    },
    {
      "id": 2,
      "content": "<MASK>",
      "single_word": false,
      "lstrip": false,
      "rstrip": false,
      "normalized": false,
      "special": true
    },
    {
      "id": 3,
      "content": "<CLS>",
      "single_word": false,
      "lstrip": false,
      "rstrip": false,
      "normalized": false,
      "special": true
    }
  ],
  "normalizer": null,
  "pre_tokenizer": {
    "type": "Whitespace"
  },
  "post_processor": null,
  "decoder": null,
  "model": {
    "type": "BPE",
    "dropout": null,
    "unk_token": "<UNK>",
    "continuing_subword_prefix": null,
    "end_of_word_suffix": null,
    "fuse_unk": false,
    "vocab": {
      "<UNK>": 0,
      "<SEP>": 1,
      "<MASK>": 2,
      "<CLS>": 3,
      "'": 4,
      "0": 5,
      "1": 6,
      "2": 7,
      "3": 8,
      "4": 9,
      "5": 10,
      "6": 11,
      "7": 12,
      "8": 13,
      "9": 14,
      "_": 15,
      "a": 16,
      "b": 17,
      "c": 18,
      "d": 19,
      "e": 20,
      "f": 21,
      "g": 22,
      "h": 23,
      "i": 24,
      "j": 25,
      "k": 26,
      "l": 27,
      "m": 28,
      "n": 29,
      "o": 30,
      "p": 31,
      "q": 32,
      "r": 33,
      "s": 34,
      "t": 35,
      "u": 36,
      "v": 37,
      "w": 38,
      "x": 39,
      "y": 40,
      "z": 41,
      "½": 42,
      "ß": 43,
      "à": 44,
      "â": 45,
      "ä": 46,
      "æ": 47,
      "ç": 48,
      "è": 49,
      "é": 50,
      "ê": 51,
      "ë": 52,
      "î": 53,
      "ï": 54,
      "ô": 55,
      "ö": 56,
      "ù": 57,
      "û": 58,
      "ü": 59,
      "œ": 60,
      "th": 61,
      "er": 62,
      "en": 63,
      "in": 64,
      "an": 65,
      "ou": 66,
      "es": 67,
      "is": 68,
      "or": 69,
      "on": 70,
      "ch": 71,
      "ar": 72,
      "the": 73,
      "ll": 74,
      "and": 75,
      "at": 76,
      "st": 77,
      "it": 78,
      "re": 79,
      "le": 80,
      "to": 81,
      "me": 82,
      "be": 83,
      "un": 84,
      "no": 85,
      "you": 86,
      "se": 87,
      "ie": 88,
      "of": 89,
      "ha": 90,
      "de": 91,
      "wi": 92,
      "as": 93,
      "he": 94,
      "ing": 95,
      "ro": 96,
      "ve": 97,
      "wh": 98,
      "ce": 99,
      "for": 100,
      "li": 101,
      "us": 102,
      "ent": 103,
      "ra": 104,
      "my": 105,
      "we": 106,
      "al": 107,
      "ut": 108,
      "der": 109,
      "ge": 110,
      "ir": 111,
      "that": 112,
      "ma": 113,
      "ur": 114,
      "ere": 115,
      "so": 116,
      "te": 117,
      "co": 118,
      "la": 119,
      "ld": 120,
      "lo": 121,
      "ke": 122,
      "im": 123,
      "ig": 124,
      "not": 125,
      "do": 126,
      "with": 127,
      "ver": 128,
      "die": 129,
      "ich": 130,
      "our": 131,
      "et": 132,
      "all": 133,
      "ter": 134,
      "go": 135,
      "qu": 136,
      "au": 137,
      "am": 138,
      "your": 139,
      "ay": 140,
      "ne": 141,
      "ho": 142,
      "ri": 143,
      "thou": 144,
      "but": 145,
      "ion": 146,
      "his": 147,
      "this": 148,
      "est": 149,
      "pe": 150,
      "ess": 151,
      "di": 152,
      "il": 153,
      "ther": 154,
      "den": 155,
      "ck": 156,
      "ine": 157,
      "her": 158,
      "ht": 159,
      "have": 160,
      "are": 161,
      "fa": 162,
      "fe": 163,
      "ly": 164,
      "will": 165,
      "man": 166,
      "him": 167,
      "ung": 168,
      "ord": 169,
      "su": 170,
      "und": 171,
      "ten": 172,
      "sha": 173,
      "ad": 174,
      "od": 175,
      "now": 176,
      "ant": 177,
      "po": 178,
      "tr": 179,
      "by": 180,
      "ed": 181,
      "sch": 182,
      "what": 183,
      "ber": 184,
      "ta": 185,
      "ould": 186,
      "con": 187,
      "pr": 188,
      "thy": 189,
      "com": 190,
      "if": 191,
      "ill": 192,
      "one": 193,
      "art": 194,
      "ard": 195,
      "end": 196,
      "mo": 197,
      "des": 198,
      "um": 199,
      "pro": 200,
      "ct": 201,
      "hr": 202,
      "ex": 203,
      "ous": 204,
      "king": 205,
      "ind": 206,
      "shall": 207,
      "lich": 208,
      "per": 209,
      "lord": 210,
      "sh": 211,
      "bo": 212,
      "up": 213,
      "mor": 214,
      "ight": 215,
      "ust": 216,
      "sel": 217,
      "let": 218,
      "sa": 219,
      "thee": 220,
      "wn": 221,
      "wo": 222,
      "ca": 223,
      "zu": 224,
      "ble": 225,
      "men": 226,
      "ist": 227,
      "ein": 228,
      "rom": 229,
      "wor": 230,
      "ol": 231,
      "come": 232,
      "ain": 233,
      "there": 234,
      "vi": 235,
      "oun": 236,
      "good": 237,
      "wer": 238,
      "out": 239,
      "que": 240,
      "sir": 241,
      "gen": 242,
      "du": 243,
      "ci": 244,
      "na": 245,
      "how": 246,
      "les": 247,
      "she": 248,
      "well": 249,
      "ue": 250,
      "was": 251,
      "si": 252,
      "ag": 253,
      "beit": 254,
      "af": 255,
      "ven": 256,
      "from": 257,
      "ben": 258,
      "arbeit": 259,
      "ong": 260,
      "id": 261,
      "fra": 262,
      "here": 263,
      "ti": 264,
      "enter": 265,
      "sie": 266,
      "they": 267,
      "mar": 268,
      "who": 269,
      "than": 270,
      "then": 271,
      "br": 272,
      "more": 273,
      "would": 274,
      "can": 275,
      "em": 276,
      "son": 277,
      "love": 278,
      "ans": 279,
      "fr": 280,
      "ges": 281,
      "know": 282,
      "ate": 283,
      "which": 284,
      "ul": 285,
      "gh": 286,
      "gr": 287,
      "mer": 288,
      "gi": 289,
      "ste": 290,
      "war": 291,
      "ser": 292,
      "sp": 293,
      "fo": 294,
      "gl": 295,
      "hn": 296,
      "ak": 297,
      "ür": 298,
      "ry": 299,
      "them": 300,
      "say": 301,
      "frau": 302,
      "when": 303,
      "lt": 304,
      "their": 305,
      "spe": 306,
      "da": 307,
      "hen": 308,
      "ure": 309,
      "ab": 310,
      "self": 311,
      "ance": 312,
      "auf": 313,
      "like": 314,
      "je": 315,
      "ese": 316,
      "may": 317,
      "ght": 318,
      "icht": 319,
      "lu": 320,
      "gre": 321,
      "ow": 322,
      "hath": 323,
      "io": 324,
      "ple": 325,
      "dem": 326,
      "such": 327,
      "ep": 328,
      "mis": 329,
      "aus": 330,
      "par": 331,
      "where": 332,
      "see": 333,
      "ish": 334,
      "ze": 335,
      "did": 336,
      "ath": 337,
      "sich": 338,
      "ger": 339,
      "sc": 340,
      "ier": 341,
      "ok": 342,
      "ink": 343,
      "frauen": 344,
      "chen": 345,
      "von": 346,
      "upon": 347,
      "ation": 348,
      "fore": 349,
      "mit": 350,
      "ces": 351,
      "ves": 352,
      "were": 353,
      "some": 354,
      "pa": 355,
      "än": 356,
      "che": 357,
      "hand": 358,
      "ass": 359,
      "tis": 360,
      "ment": 361,
      "way": 362,
      "thing": 363,
      "yet": 364,
      "lie": 365,
      "pla": 366,
      "should": 367,
      "vo": 368,
      "make": 369,
      "ence": 370,
      "ap": 371,
      "other": 372,
      "das": 373,
      "dis": 374,
      "ster": 375,
      "ic": 376,
      "land": 377,
      "mon": 378,
      "gra": 379,
      "nen": 380,
      "uch": 381,
      "must": 382,
      "use": 383,
      "bro": 384,
      "nor": 385,
      "off": 386,
      "unt": 387,
      "el": 388,
      "had": 389,
      "tell": 390,
      "tra": 391,
      "why": 392,
      "ba": 393,
      "ff": 394,
      "time": 395,
      "very": 396,
      "ound": 397,
      "gent": 398,
      "tre": 399,
      "give": 400,
      "ince": 401,
      "une": 402,
      "str": 403,
      "swe": 404,
      "ach": 405,
      "hon": 406,
      "these": 407,
      "pra": 408,
      "most": 409,
      "ise": 410,
      "fir": 411,
      "ye": 412,
      "eine": 413,
      "op": 414,
      "bre": 415,
      "again": 416,
      "speak": 417,
      "nicht": 418,
      "ire": 419,
      "jo": 420,
      "word": 421,
      "ts": 422,
      "ner": 423,
      "take": 424,
      "any": 425,
      "think": 426,
      "bes": 427,
      "sen": 428,
      "stand": 429,
      "ip": 430,
      "row": 431,
      "dy": 432,
      "ies": 433,
      "ted": 434,
      "heart": 435,
      "ihr": 436,
      "blo": 437,
      "day": 438,
      "too": 439,
      "ity": 440,
      "god": 441,
      "als": 442,
      "ph": 443,
      "fri": 444,
      "für": 445,
      "ja": 446,
      "ft": 447,
      "ars": 448,
      "urch": 449,
      "lichen": 450,
      "mine": 451,
      "ene": 452,
      "ave": 453,
      "wir": 454,
      "gentle": 455,
      "ange": 456,
      "ward": 457,
      "look": 458,
      "qui": 459,
      "first": 460,
      "vor": 461,
      "ang": 462,
      "nur": 463,
      "arbeiter": 464,
      "duke": 465,
      "exe": 466,
      "father": 467,
      "char": 468,
      "great": 469,
      "ins": 470,
      "ty": 471,
      "urn": 472,
      "hea": 473,
      "ers": 474,
      "dr": 475,
      "coun": 476,
      "pre": 477,
      "bl": 478,
      "part": 479,
      "cor": 480,
      "fair": 481,
      "por": 482,
      "hre": 483,
      "lle": 484,
      "ite": 485,
      "ius": 486,
      "hear": 487,
      "bet": 488,
      "ded": 489,
      "pl": 490,
      "read": 491,
      "gu": 492,
      "much": 493,
      "exeunt": 494,
      "om": 495,
      "innen": 496,
      "long": 497,
      "never": 498,
      "fal": 499,
      "friend": 500,
      "llow": 501,
      "night": 502,
      "pri": 503,
      "ful": 504,
      "fort": 505,
      "int": 506,
      "master": 507,
      "queen": 508,
      "inc": 509,
      "set": 510,
      "ice": 511,
      "exit": 512,
      "ia": 513,
      "daß": 514,
      "igen": 515,
      "bra": 516,
      "age": 517,
      "lady": 518,
      "tro": 519,
      "hor": 520,
      "ness": 521,
      "gar": 522,
      "rich": 523,
      "kes": 524,
      "res": 525,
      "hl": 526,
      "ide": 527,
      "auch": 528,
      "yes": 529,
      "doth": 530,
      "ib": 531,
      "ac": 532,
      "blood": 533,
      "unter": 534,
      "ks": 535,
      "death": 536,
      "ken": 537,
      "oul": 538,
      "pos": 539,
      "world": 540,
      "mad": 541,
      "down": 542,
      "bar": 543,
      "clo": 544,
      "sweet": 545,
      "call": 546,
      "itt": 547,
      "ign": 548,
      "pray": 549,
      "cht": 550,
      "rie": 551,
      "wr": 552,
      "wie": 553,
      "18": 554,
      "ast": 555,
      "über": 556,
      "cour": 557,
      "pet": 558,
      "made": 559,
      "fre": 560,
      "ungen": 561,
      "ction": 562,
      "prince": 563,
      "durch": 564,
      "00": 565,
      "away": 566,
      "anton": 567,
      "life": 568,
      "vant": 569,
      "ear": 570,
      "dist": 571,
      "heaven": 572,
      "va": 573,
      "ither": 574,
      "ihre": 575,
      "before": 576,
      "under": 577,
      "its": 578,
      "less": 579,
      "ose": 580,
      "able": 581,
      "bi": 582,
      "true": 583,
      "own": 584,
      "ham": 585,
      "hold": 586,
      "new": 587,
      "ull": 588,
      "pas": 589,
      "arm": 590,
      "liche": 591,
      "wen": 592,
      "ros": 593,
      "fear": 594,
      "tain": 595,
      "nat": 596,
      "scene": 597,
      "ving": 598,
      "hat": 599,
      "cle": 600,
      "zen": 601,
      "put": 602,
      "old": 603,
      "best": 604,
      "thus": 605,
      "hast": 606,
      "ough": 607,
      "ief": 608,
      "fl": 609,
      "tri": 610,
      "sion": 611,
      "cr": 612,
      "cy": 613,
      "pt": 614,
      "hel": 615,
      "cas": 616,
      "ace": 617,
      "fall": 618,
      "engl": 619,
      "cannot": 620,
      "dies": 621,
      "aber": 622,
      "pres": 623,
      "tal": 624,
      "schaf": 625,
      "bear": 626,
      "ship": 627,
      "red": 628,
      "glou": 629,
      "pu": 630,
      "igh": 631,
      "brother": 632,
      "ret": 633,
      "ase": 634,
      "ses": 635,
      "ings": 636,
      "tim": 637,
      "mat": 638,
      "cop": 639,
      "cond": 640,
      "ever": 641,
      "ile": 642,
      "fool": 643,
      "wel": 644,
      "cla": 645,
      "two": 646,
      "head": 647,
      "though": 648,
      "pour": 649,
      "deed": 650,
      "bu": 651,
      "honour": 652,
      "ive": 653,
      "been": 654,
      "bed": 655,
      "ouse": 656,
      "nach": 657,
      "done": 658,
      "eyes": 659,
      "name": 660,
      "comes": 661,
      "pat": 662,
      "sor": 663,
      "ford": 664,
      "ann": 665,
      "beg": 666,
      "distri": 667,
      "bis": 668,
      "pp": 669,
      "iel": 670,
      "keit": 671,
      "dé": 672,
      "rown": 673,
      "thought": 674,
      "wa": 675,
      "bur": 676,
      "might": 677,
      "tem": 678,
      "distribut": 679,
      "dans": 680,
      "ps": 681,
      "live": 682,
      "dar": 683,
      "noble": 684,
      "mem": 685,
      "grace": 686,
      "dra": 687,
      "fü": 688,
      "being": 689,
      "dau": 690,
      "cur": 691,
      "pf": 692,
      "into": 693,
      "right": 694,
      "19": 695,
      "leave": 696,
      "hä": 697,
      "person": 698,
      "wit": 699,
      "could": 700,
      "ont": 701,
      "cester": 702,
      "cl": 703,
      "tru": 704,
      "poor": 705,
      "xt": 706,
      "sent": 707,
      "ren": 708,
      "both": 709,
      "werden": 710,
      "ern": 711,
      "ischen": 712,
      "fran": 713,
      "gesch": 714,
      "nothing": 715,
      "ux": 716,
      "hal": 717,
      "till": 718,
      "män": 719,
      "therefore": 720,
      "vous": 721,
      "house": 722,
      "ju": 723,
      "fol": 724,
      "vice": 725,
      "wick": 726,
      "gloucester": 727,
      "ause": 728,
      "aff": 729,
      "whose": 730,
      "vere": 731,
      "sten": 732,
      "france": 733,
      "find": 734,
      "still": 735,
      "tend": 736,
      "caes": 737,
      "show": 738,
      "deut": 739,
      "henry": 740,
      "llo": 741,
      "reich": 742,
      "caesar": 743,
      "sur": 744,
      "better": 745,
      "ian": 746,
      "aut": 747,
      "gan": 748,
      "ors": 749,
      "min": 750,
      "comp": 751,
      "noch": 752,
      "wä": 753,
      "ele": 754,
      "sind": 755,
      "lia": 756,
      "bst": 757,
      "pur": 758,
      "uf": 759,
      "keep": 760,
      "essen": 761,
      "ond": 762,
      "against": 763,
      "dear": 764,
      "even": 765,
      "ition": 766,
      "nay": 767,
      "second": 768,
      "ied": 769,
      "many": 770,
      "dead": 771,
      "light": 772,
      "sold": 773,
      "ghter": 774,
      "soul": 775,
      "ason": 776,
      "ru": 777,
      "bor": 778,
      "ith": 779,
      "mä": 780,
      "ison": 781,
      "gro": 782,
      "vill": 783,
      "nis": 784,
      "full": 785,
      "kind": 786,
      "bei": 787,
      "wife": 788,
      "myself": 789,
      "car": 790,
      "just": 791,
      "dien": 792,
      "ours": 793,
      "john": 794,
      "ils": 795,
      "zeit": 796,
      "led": 797,
      "peace": 798,
      "every": 799,
      "boy": 800,
      "bring": 801,
      "cause": 802,
      "ary": 803,
      "wur": 804,
      "those": 805,
      "rome": 806,
      "bus": 807,
      "after": 808,
      "servant": 809,
      "rest": 810,
      "bene": 811,
      "comm": 812,
      "yor": 813,
      "weib": 814,
      "zur": 815,
      "thre": 816,
      "ander": 817,
      "only": 818,
      "tent": 819,
      "place": 820,
      "ban": 821,
      "youn": 822,
      "gegen": 823,
      "ild": 824,
      "vol": 825,
      "llen": 826,
      "ii": 827,
      "sle": 828,
      "sein": 829,
      "sit": 830,
      "onic": 831,
      "gentleman": 832,
      "ot": 833,
      "mais": 834,
      "mehr": 835,
      "dou": 836,
      "richard": 837,
      "antony": 838,
      "bid": 839,
      "kin": 840,
      "za": 841,
      "ient": 842,
      "york": 843,
      "stay": 844,
      "suff": 845,
      "cap": 846,
      "act": 847,
      "bri": 848,
      "ga": 849,
      "woman": 850,
      "val": 851,
      "vir": 852,
      "madam": 853,
      "fer": 854,
      "litt": 855,
      "inter": 856,
      "tong": 857,
      "tress": 858,
      "brut": 859,
      "hö": 860,
      "bt": 861,
      "tit": 862,
      "ctor": 863,
      "ject": 864,
      "fare": 865,
      "get": 866,
      "onder": 867,
      "staff": 868,
      "schaft": 869,
      "mal": 870,
      "iti": 871,
      "within": 872,
      "daughter": 873,
      "wat": 874,
      "har": 875,
      "england": 876,
      "soldier": 877,
      "young": 878,
      "luci": 879,
      "words": 880,
      "play": 881,
      "band": 882,
      "gle": 883,
      "oft": 884,
      "cassi": 885,
      "little": 886,
      "ün": 887,
      "mus": 888,
      "brutus": 889,
      "ück": 890,
      "dern": 891,
      "vent": 892,
      "ought": 893,
      "ute": 894,
      "ät": 895,
      "mother": 896,
      "friends": 897,
      "ouch": 898,
      "plus": 899,
      "gone": 900,
      "aside": 901,
      "service": 902,
      "page": 903,
      "arbeits": 904,
      "spir": 905,
      "none": 906,
      "thr": 907,
      "uß": 908,
      "sure": 909,
      "indust": 910,
      "oud": 911,
      "ort": 912,
      "sil": 913,
      "commer": 914,
      "lords": 915,
      "cher": 916,
      "urs": 917,
      "selbst": 918,
      "faith": 919,
      "aux": 920,
      "answer": 921,
      "mistress": 922,
      "thine": 923,
      "follow": 924,
      "ctr": 925,
      "mind": 926,
      "another": 927,
      "lear": 928,
      "eye": 929,
      "kill": 930,
      "pass": 931,
      "falstaff": 932,
      "ats": 933,
      "face": 934,
      "himself": 935,
      "cent": 936,
      "ré": 937,
      "turn": 938,
      "199": 939,
      "ister": 940,
      "dro": 941,
      "kon": 942,
      "ob": 943,
      "jahr": 944,
      "since": 945,
      "anger": 946,
      "kö": 947,
      "ihrer": 948,
      "copies": 949,
      "electr": 950,
      "electronic": 951,
      "fellow": 952,
      "commerci": 953,
      "sy": 954,
      "wird": 955,
      "distributed": 956,
      "ield": 957,
      "iger": 958,
      "unto": 959,
      "present": 960,
      "forth": 961,
      "pose": 962,
      "conf": 963,
      "member": 964,
      "vil": 965,
      "los": 966,
      "indeed": 967,
      "ech": 968,
      "ws": 969,
      "iss": 970,
      "mach": 971,
      "tu": 972,
      "once": 973,
      "mac": 974,
      "iness": 975,
      "bel": 976,
      "cre": 977,
      "sla": 978,
      "cer": 979,
      "beth": 980,
      "dost": 981,
      "warwick": 982,
      "hum": 983,
      "wal": 984,
      "ning": 985,
      "please": 986,
      "else": 987,
      "kom": 988,
      "pleas": 989,
      "jest": 990,
      "kr": 991,
      "ling": 992,
      "whom": 993,
      "port": 994,
      "sand": 995,
      "nature": 996,
      "ring": 997,
      "others": 998,
      "about": 999,
      "industrie": 1000,
      "hus": 1001,
      "oder": 1002,
      "over": 1003,
      "sal": 1004,
      "kt": 1005,
      "igkeit": 1006,
      "form": 1007,
      "bla": 1008,
      "far": 1009,
      "hence": 1010,
      "back": 1011,
      "männer": 1012,
      "arbeiterinnen": 1013,
      "stri": 1014,
      "host": 1015,
      "three": 1016,
      "tongue": 1017,
      "mur": 1018,
      "mean": 1019,
      "deutsch": 1020,
      "meet": 1021,
      "ons": 1022,
      "ions": 1023,
      "att": 1024,
      "dre": 1025,
      "hu": 1026,
      "wis": 1027,
      "pen": 1028,
      "vis": 1029,
      "seem": 1030,
      "haus": 1031,
      "etz": 1032,
      "dienst": 1033,
      "has": 1034,
      "gel": 1035,
      "anio": 1036,
      "gung": 1037,
      "mission": 1038,
      "attend": 1039,
      "uten": 1040,
      "cious": 1041,
      "need": 1042,
      "bell": 1043,
      "lay": 1044,
      "gleich": 1045,
      "ili": 1046,
      "sto": 1047,
      "fin": 1048,
      "einer": 1049,
      "child": 1050,
      "dchen": 1051,
      "iam": 1052,
      "leben": 1053,
      "bewe": 1054,
      "hol": 1055,
      "bast": 1056,
      "mädchen": 1057,
      "bot": 1058,
      "stra": 1059,
      "ants": 1060,
      "said": 1061,
      "matter": 1062,
      "cal": 1063,
      "fam": 1064,
      "inen": 1065,
      "kl": 1066,
      "letter": 1067,
      "honest": 1068,
      "fortune": 1069,
      "groß": 1070,
      "reason": 1071,
      "power": 1072,
      "william": 1073,
      "came": 1074,
      "hnen": 1075,
      "cho": 1076,
      "heit": 1077,
      "stu": 1078,
      "pis": 1079,
      "main": 1080,
      "haben": 1081,
      "marry": 1082,
      "nous": 1083,
      "cet": 1084,
      "fast": 1085,
      "edward": 1086,
      "happ": 1087,
      "hope": 1088,
      "ench": 1089,
      "cking": 1090,
      "husband": 1091,
      "cuse": 1092,
      "crown": 1093,
      "cut": 1094,
      "wenn": 1095,
      "welcome": 1096,
      "bli": 1097,
      "beat": 1098,
      "rosal": 1099,
      "sleep": 1100,
      "sta": 1101,
      "ally": 1102,
      "via": 1103,
      "law": 1104,
      "without": 1105,
      "court": 1106,
      "ited": 1107,
      "wrong": 1108,
      "dam": 1109,
      "heard": 1110,
      "ird": 1111,
      "vers": 1112,
      "home": 1113,
      "iago": 1114,
      "sin": 1115,
      "villain": 1116,
      "cus": 1117,
      "gt": 1118,
      "hang": 1119,
      "stell": 1120,
      "bon": 1121,
      "cou": 1122,
      "win": 1123,
      "hot": 1124,
      "while": 1125,
      "ents": 1126,
      "geb": 1127,
      "sol": 1128,
      "earth": 1129,
      "ien": 1130,
      "makes": 1131,
      "try": 1132,
      "sword": 1133,
      "vy": 1134,
      "zum": 1135,
      "last": 1136,
      "dom": 1137,
      "joy": 1138,
      "clown": 1139,
      "farewell": 1140,
      "cam": 1141,
      "mas": 1142,
      "morrow": 1143,
      "selves": 1144,
      "met": 1145,
      "messen": 1146,
      "mü": 1147,
      "othe": 1148,
      "false": 1149,
      "einen": 1150,
      "truth": 1151,
      "zahl": 1152,
      "gue": 1153,
      "timon": 1154,
      "zw": 1155,
      "low": 1156,
      "quest": 1157,
      "ick": 1158,
      "pard": 1159,
      "pol": 1160,
      "help": 1161,
      "thousand": 1162,
      "teil": 1163,
      "exce": 1164,
      "führ": 1165,
      "bs": 1166,
      "iv": 1167,
      "gold": 1168,
      "count": 1169,
      "cra": 1170,
      "ates": 1171,
      "shame": 1172,
      "hour": 1173,
      "ore": 1174,
      "weit": 1175,
      "got": 1176,
      "zie": 1177,
      "lies": 1178,
      "does": 1179,
      "fau": 1180,
      "ker": 1181,
      "things": 1182,
      "othello": 1183,
      "ial": 1184,
      "heir": 1185,
      "ody": 1186,
      "messenger": 1187,
      "pal": 1188,
      "pardon": 1189,
      "fur": 1190,
      "mes": 1191,
      "thank": 1192,
      "roy": 1193,
      "gesetz": 1194,
      "swear": 1195,
      "quick": 1196,
      "bour": 1197,
      "sing": 1198,
      "cous": 1199,
      "som": 1200,
      "worth": 1201,
      "alle": 1202,
      "diese": 1203,
      "pain": 1204,
      "spo": 1205,
      "fen": 1206,
      "touch": 1207,
      "ige": 1208,
      "state": 1209,
      "rather": 1210,
      "prove": 1211,
      "50": 1212,
      "ée": 1213,
      "nah": 1214,
      "appe": 1215,
      "dge": 1216,
      "sign": 1217,
      "ton": 1218,
      "ère": 1219,
      "beaut": 1220,
      "mark": 1221,
      "sat": 1222,
      "prote": 1223,
      "hands": 1224,
      "news": 1225,
      "lin": 1226,
      "send": 1227,
      "és": 1228,
      "youth": 1229,
      "dio": 1230,
      "wurde": 1231,
      "text": 1232,
      "besch": 1233,
      "ah": 1234,
      "dire": 1235,
      "ille": 1236,
      "grand": 1237,
      "wind": 1238,
      "wilt": 1239,
      "body": 1240,
      "break": 1241,
      "enough": 1242,
      "belie": 1243,
      "fight": 1244,
      "clau": 1245,
      "är": 1246,
      "near": 1247,
      "hither": 1248,
      "len": 1249,
      "dow": 1250,
      "ungs": 1251,
      "provi": 1252,
      "broke": 1253,
      "viel": 1254,
      "glich": 1255,
      "fabri": 1256,
      "assen": 1257,
      "kön": 1258,
      "air": 1259,
      "mil": 1260,
      "thum": 1261,
      "ische": 1262,
      "shalt": 1263,
      "gener": 1264,
      "benedi": 1265,
      "bür": 1266,
      "vie": 1267,
      "wish": 1268,
      "ches": 1269,
      "ques": 1270,
      "command": 1271,
      "ai": 1272,
      "cli": 1273,
      "sound": 1274,
      "ceive": 1275,
      "beruf": 1276,
      "kann": 1277,
      "mut": 1278,
      "free": 1279,
      "gs": 1280,
      "ned": 1281,
      "comple": 1282,
      "majest": 1283,
      "lohn": 1284,
      "waren": 1285,
      "12": 1286,
      "ni": 1287,
      "col": 1288,
      "high": 1289,
      "nie": 1290,
      "trait": 1291,
      "half": 1292,
      "run": 1293,
      "change": 1294,
      "pect": 1295,
      "cks": 1296,
      "ready": 1297,
      "helen": 1298,
      "kna": 1299,
      "rs": 1300,
      "fect": 1301,
      "kinder": 1302,
      "cham": 1303,
      "macbeth": 1304,
      "bürger": 1305,
      "bere": 1306,
      "mö": 1307,
      "ois": 1308,
      "ek": 1309,
      "ihnen": 1310,
      "bury": 1311,
      "seen": 1312,
      "paris": 1313,
      "fit": 1314,
      "jour": 1315,
      "non": 1316,
      "rant": 1317,
      "stre": 1318,
      "lau": 1319,
      "sub": 1320,
      "gods": 1321,
      "10": 1322,
      "ait": 1323,
      "pom": 1324,
      "breath": 1325,
      "justice": 1326,
      "spirit": 1327,
      "geschle": 1328,
      "tout": 1329,
      "med": 1330,
      "tears": 1331,
      "ried": 1332,
      "through": 1333,
      "toge": 1334,
      "shakes": 1335,
      "saw": 1336,
      "used": 1337,
      "cess": 1338,
      "kne": 1339,
      "colle": 1340,
      "berg": 1341,
      "bewegung": 1342,
      "cousin": 1343,
      "inius": 1344,
      "atra": 1345,
      "rage": 1346,
      "tel": 1347,
      "point": 1348,
      "cleop": 1349,
      "fault": 1350,
      "together": 1351,
      "ather": 1352,
      "os": 1353,
      "orn": 1354,
      "yourself": 1355,
      "content": 1356,
      "arms": 1357,
      "ross": 1358,
      "cleopatra": 1359,
      "sun": 1360,
      "schon": 1361,
      "quel": 1362,
      "strong": 1363,
      "strange": 1364,
      "care": 1365,
      "ihren": 1366,
      "cu": 1367,
      "cke": 1368,
      "pay": 1369,
      "ures": 1370,
      "sum": 1371,
      "cri": 1372,
      "wei": 1373,
      "alth": 1374,
      "hig": 1375,
      "éta": 1376,
      "fire": 1377,
      "ious": 1378,
      "kle": 1379,
      "grief": 1380,
      "don": 1381,
      "bese": 1382,
      "prison": 1383,
      "return": 1384,
      "mi": 1385,
      "wed": 1386,
      "189": 1387,
      "cry": 1388,
      "fä": 1389,
      "kam": 1390,
      "ona": 1391,
      "lles": 1392,
      "ité": 1393,
      "majesty": 1394,
      "bit": 1395,
      "igt": 1396,
      "citi": 1397,
      "fly": 1398,
      "went": 1399,
      "ween": 1400,
      "peare": 1401,
      "sup": 1402,
      "const": 1403,
      "speed": 1404,
      "times": 1405,
      "shakespeare": 1406,
      "citizen": 1407,
      "imm": 1408,
      "imo": 1409,
      "press": 1410,
      "worthy": 1411,
      "french": 1412,
      "charge": 1413,
      "unes": 1414,
      "weep": 1415,
      "geme": 1416,
      "four": 1417,
      "grow": 1418,
      "hes": 1419,
      "reven": 1420,
      "sick": 1421,
      "ments": 1422,
      "horse": 1423,
      "rosalind": 1424,
      "ale": 1425,
      "lan": 1426,
      "wise": 1427,
      "anus": 1428,
      "means": 1429,
      "hne": 1430,
      "iden": 1431,
      "late": 1432,
      "shallow": 1433,
      "antonio": 1434,
      "draw": 1435,
      "certain": 1436,
      "swor": 1437,
      "same": 1438,
      "fet": 1439,
      "watch": 1440,
      "lucius": 1441,
      "entre": 1442,
      "deser": 1443,
      "hin": 1444,
      "oc": 1445,
      "té": 1446,
      "lost": 1447,
      "ilus": 1448,
      "olk": 1449,
      "bucking": 1450,
      "suffolk": 1451,
      "provided": 1452,
      "oth": 1453,
      "erst": 1454,
      "deli": 1455,
      "kommen": 1456,
      "buckingham": 1457,
      "mb": 1458,
      "eng": 1459,
      "aten": 1460,
      "guten": 1461,
      "hard": 1462,
      "iet": 1463,
      "entine": 1464,
      "yours": 1465,
      "fi": 1466,
      "maid": 1467,
      "machine": 1468,
      "force": 1469,
      "born": 1470,
      "cassio": 1471,
      "comme": 1472,
      "project": 1473,
      "werk": 1474,
      "troilus": 1475,
      "thoughts": 1476,
      "reenter": 1477,
      "devil": 1478,
      "wear": 1479,
      "prof": 1480,
      "fte": 1481,
      "lung": 1482,
      "zus": 1483,
      "works": 1484,
      "royal": 1485,
      "sk": 1486,
      "tes": 1487,
      "load": 1488,
      "charges": 1489,
      "währ": 1490,
      "ens": 1491,
      "sed": 1492,
      "ran": 1493,
      "third": 1494,
      "inst": 1495,
      "lose": 1496,
      "common": 1497,
      "oney": 1498,
      "ends": 1499,
      "ließ": 1500,
      "wirt": 1501,
      "hält": 1502,
      "believe": 1503,
      "complete": 1504,
      "ls": 1505,
      "left": 1506,
      "cold": 1507,
      "save": 1508,
      "stehen": 1509,
      "serve": 1510,
      "publi": 1511,
      "copy": 1512,
      "syra": 1513,
      "etext": 1514,
      "hier": 1515,
      "kiss": 1516,
      "outh": 1517,
      "uncle": 1518,
      "personal": 1519,
      "arch": 1520,
      "trust": 1521,
      "proud": 1522,
      "foul": 1523,
      "ory": 1524,
      "einem": 1525,
      "country": 1526,
      "happy": 1527,
      "hung": 1528,
      "ience": 1529,
      "pand": 1530,
      "unden": 1531,
      "dol": 1532,
      "licher": 1533,
      "says": 1534,
      "bien": 1535,
      "wall": 1536,
      "leur": 1537,
      "ily": 1538,
      "besonder": 1539,
      "between": 1540,
      "sorrow": 1541,
      "each": 1542,
      "itself": 1543,
      "mag": 1544,
      "emp": 1545,
      "ler": 1546,
      "isten": 1547,
      "told": 1548,
      "utz": 1549,
      "ution": 1550,
      "ires": 1551,
      "cast": 1552,
      "talk": 1553,
      "found": 1554,
      "field": 1555,
      "sister": 1556,
      "immer": 1557,
      "ets": 1558,
      "pré": 1559,
      "syracuse": 1560,
      "hib": 1561,
      "alone": 1562,
      "ardin": 1563,
      "wohl": 1564,
      "dig": 1565,
      "ér": 1566,
      "ask": 1567,
      "libr": 1568,
      "business": 1569,
      "danger": 1570,
      "tomorrow": 1571,
      "sea": 1572,
      "seek": 1573,
      "college": 1574,
      "bles": 1575,
      "gave": 1576,
      "oli": 1577,
      "sim": 1578,
      "allein": 1579,
      "ations": 1580,
      "bastard": 1581,
      "gutenberg": 1582,
      "ople": 1583,
      "ras": 1584,
      "arus": 1585,
      "valentine": 1586,
      "beauty": 1587,
      "muß": 1588,
      "desdem": 1589,
      "known": 1590,
      "inclu": 1591,
      "library": 1592,
      "bal": 1593,
      "cat": 1594,
      "people": 1595,
      "permission": 1596,
      "bild": 1597,
      "weiblichen": 1598,
      "ici": 1599,
      "version": 1600,
      "trou": 1601,
      "clar": 1602,
      "titus": 1603,
      "beseech": 1604,
      "fait": 1605,
      "antip": 1606,
      "desire": 1607,
      "promis": 1608,
      "bloody": 1609,
      "cassius": 1610,
      "desdemona": 1611,
      "sight": 1612,
      "loves": 1613,
      "verhält": 1614,
      "illin": 1615,
      "general": 1616,
      "copyright": 1617,
      "nä": 1618,
      "alas": 1619,
      "deutschland": 1620,
      "benedict": 1621,
      "pity": 1622,
      "ana": 1623,
      "trie": 1624,
      "course": 1625,
      "dit": 1626,
      "drom": 1627,
      "dog": 1628,
      "distribution": 1629,
      "verhältnis": 1630,
      "illinois": 1631,
      "lehr": 1632,
      "tet": 1633,
      "readable": 1634,
      "dromio": 1635,
      "ava": 1636,
      "chief": 1637,
      "lad": 1638,
      "lys": 1639,
      "prohib": 1640,
      "includes": 1641,
      "benedictine": 1642,
      "15": 1643,
      "flo": 1644,
      "hate": 1645,
      "sans": 1646,
      "tous": 1647,
      "ès": 1648,
      "chr": 1649,
      "seine": 1650,
      "hector": 1651,
      "denen": 1652,
      "offic": 1653,
      "doubt": 1654,
      "1990": 1655,
      "commercial": 1656,
      "holus": 1657,
      "mrs": 1658,
      "sad": 1659,
      "anne": 1660,
      "download": 1661,
      "purpose": 1662,
      "1993": 1663,
      "commercially": 1664,
      "membership": 1665,
      "pleasure": 1666,
      "proteus": 1667,
      "antipholus": 1668,
      "prohibited": 1669,
      "19901993": 1670,
      "weil": 1671,
      "essid": 1672,
      "chamber": 1673,
      "reg": 1674,
      "leon": 1675,
      "hop": 1676,
      "work": 1677,
      "cressid": 1678,
      "sper": 1679,
      "foot": 1680,
      "prithee": 1681,
      "petr": 1682,
      "oath": 1683,
      "mann": 1684,
      "suit": 1685,
      "angelo": 1686,
      "isa": 1687,
      "illes": 1688,
      "uchio": 1689,
      "looks": 1690,
      "patience": 1691,
      "company": 1692,
      "pompe": 1693,
      "petruchio": 1694,
      "iol": 1695,
      "mir": 1696,
      "rel": 1697,
      "coriol": 1698,
      "murder": 1699,
      "coriolanus": 1700,
      "ms": 1701,
      "halt": 1702,
      "gestell": 1703,
      "plain": 1704,
      "cted": 1705,
      "wes": 1706,
      "star": 1707,
      "knows": 1708,
      "gentlemen": 1709,
      "music": 1710,
      "bound": 1711,
      "dare": 1712,
      "soon": 1713,
      "sondern": 1714,
      "frank": 1715,
      "cette": 1716,
      "prosper": 1717,
      "thinks": 1718,
      "soldiers": 1719,
      "clarence": 1720,
      "pompey": 1721,
      "vour": 1722,
      "umpet": 1723,
      "margar": 1724,
      "stru": 1725,
      "nurse": 1726,
      "margaret": 1727,
      "bas": 1728,
      "pi": 1729,
      "grave": 1730,
      "days": 1731,
      "dream": 1732,
      "17": 1733,
      "ende": 1734,
      "lives": 1735,
      "fabrik": 1736,
      "jul": 1737,
      "toby": 1738,
      "lot": 1739,
      "fection": 1740,
      "hness": 1741,
      "13": 1742,
      "20": 1743,
      "lov": 1744,
      "comfort": 1745,
      "women": 1746,
      "stellung": 1747,
      "16": 1748,
      "100": 1749,
      "ais": 1750,
      "abo": 1751,
      "gain": 1752,
      "mk": 1753,
      "given": 1754,
      "gracious": 1755,
      "dolph": 1756,
      "ev": 1757,
      "gon": 1758,
      "tol": 1759,
      "sont": 1760,
      "gall": 1761,
      "lead": 1762,
      "roman": 1763,
      "bless": 1764,
      "net": 1765,
      "brave": 1766,
      "vali": 1767,
      "black": 1768,
      "bella": 1769,
      "burn": 1770,
      "aught": 1771,
      "holy": 1772,
      "männ": 1773,
      "tue": 1774,
      "side": 1775,
      "ior": 1776,
      "deux": 1777,
      "doch": 1778,
      "qual": 1779,
      "sake": 1780,
      "menen": 1781,
      "past": 1782,
      "können": 1783,
      "bass": 1784,
      "mouth": 1785,
      "zo": 1786,
      "chance": 1787,
      "vile": 1788,
      "serv": 1789,
      "writ": 1790,
      "quickly": 1791,
      "14": 1792,
      "kent": 1793,
      "zun": 1794,
      "rech": 1795,
      "recht": 1796,
      "igung": 1797,
      "berow": 1798,
      "question": 1799,
      "sworn": 1800,
      "berowne": 1801,
      "dan": 1802,
      "betra": 1803,
      "cost": 1804,
      "upt": 1805,
      "brought": 1806,
      "els": 1807,
      "menenius": 1808,
      "plu": 1809,
      "spr": 1810,
      "remember": 1811,
      "whil": 1812,
      "schutz": 1813,
      "prin": 1814,
      "thyself": 1815,
      "virtue": 1816,
      "möglich": 1817,
      "jur": 1818,
      "län": 1819,
      "money": 1820,
      "ug": 1821,
      "praise": 1822,
      "further": 1823,
      "helena": 1824,
      "wirtschaft": 1825,
      "fle": 1826,
      "ik": 1827,
      "tz": 1828,
      "took": 1829,
      "behold": 1830,
      "quar": 1831,
      "boten": 1832,
      "march": 1833,
      "bardolph": 1834,
      "geschlech": 1835,
      "thät": 1836,
      "eren": 1837,
      "atter": 1838,
      "hell": 1839,
      "bian": 1840,
      "obe": 1841,
      "rat": 1842,
      "ême": 1843,
      "versch": 1844,
      "fla": 1845,
      "phe": 1846,
      "west": 1847,
      "äft": 1848,
      "geist": 1849,
      "neh": 1850,
      "feu": 1851,
      "zehn": 1852,
      "yea": 1853,
      "jahre": 1854,
      "porti": 1855,
      "wurden": 1856,
      "sho": 1857,
      "thri": 1858,
      "organ": 1859,
      "sue": 1860,
      "bert": 1861,
      "mot": 1862,
      "move": 1863,
      "guil": 1864,
      "tonight": 1865,
      "highness": 1866,
      "lock": 1867,
      "ument": 1868,
      "years": 1869,
      "pandarus": 1870,
      "because": 1871,
      "frage": 1872,
      "sons": 1873,
      "ounds": 1874,
      "pistol": 1875,
      "ush": 1876,
      "neither": 1877,
      "cius": 1878,
      "sic": 1879,
      "gese": 1880,
      "warrant": 1881,
      "friar": 1882,
      "position": 1883,
      "excell": 1884,
      "din": 1885,
      "enden": 1886,
      "ral": 1887,
      "ammen": 1888,
      "bold": 1889,
      "drink": 1890,
      "folge": 1891,
      "portia": 1892,
      "ging": 1893,
      "lö": 1894,
      "ys": 1895,
      "open": 1896,
      "english": 1897,
      "pau": 1898,
      "mercy": 1899,
      "didst": 1900,
      "something": 1901,
      "confess": 1902,
      "dut": 1903,
      "fest": 1904,
      "ider": 1905,
      "pie": 1906,
      "sovere": 1907,
      "wert": 1908,
      "besonders": 1909,
      "sovereign": 1910,
      "né": 1911,
      "trumpet": 1912,
      "wohn": 1913,
      "incess": 1914,
      "dieser": 1915,
      "masch": 1916,
      "ny": 1917,
      "wür": 1918,
      "ßt": 1919,
      "ator": 1920,
      "uns": 1921,
      "allgeme": 1922,
      "tender": 1923,
      "boling": 1924,
      "paro": 1925,
      "retch": 1926,
      "claudio": 1927,
      "während": 1928,
      "cressida": 1929,
      "bolingbroke": 1930,
      "ape": 1931,
      "pher": 1932,
      "entwick": 1933,
      "aller": 1934,
      "amen": 1935,
      "hom": 1936,
      "table": 1937,
      "captain": 1938,
      "frankreich": 1939,
      "kather": 1940,
      "sicht": 1941,
      "erung": 1942,
      "stän": 1943,
      "water": 1944,
      "rable": 1945,
      "goes": 1946,
      "quo": 1947,
      "franc": 1948,
      "cardin": 1949,
      "lest": 1950,
      "äch": 1951,
      "deme": 1952,
      "allen": 1953,
      "herr": 1954,
      "base": 1955,
      "hatte": 1956,
      "claim": 1957,
      "25": 1958,
      "kä": 1959,
      "ting": 1960,
      "vin": 1961,
      "yield": 1962,
      "stone": 1963,
      "def": 1964,
      "deep": 1965,
      "ash": 1966,
      "loy": 1967,
      "manner": 1968,
      "poli": 1969,
      "woo": 1970,
      "thanks": 1971,
      "hearts": 1972,
      "parolles": 1973,
      "ides": 1974,
      "lar": 1975,
      "whe": 1976,
      "toward": 1977,
      "det": 1978,
      "asse": 1979,
      "pers": 1980,
      "ephes": 1981,
      "zel": 1982,
      "knave": 1983,
      "knight": 1984,
      "lä": 1985,
      "pit": 1986,
      "ester": 1987,
      "betrie": 1988,
      "lage": 1989,
      "princess": 1990,
      "safe": 1991,
      "vio": 1992,
      "canst": 1993,
      "cord": 1994,
      "city": 1995,
      "either": 1996,
      "kra": 1997,
      "won": 1998,
      "tom": 1999,
      "soz": 2000,
      "cheek": 2001,
      "talbot": 2002,
      "truly": 2003,
      "verein": 2004,
      "appear": 2005,
      "revenge": 2006,
      "ephesus": 2007,
      "30": 2008,
      "sci": 2009,
      "erwer": 2010,
      "moon": 2011,
      "grün": 2012,
      "jen": 2013,
      "vow": 2014,
      "stat": 2015,
      "keine": 2016,
      "coming": 2017,
      "merry": 2018,
      "frei": 2019,
      "gest": 2020,
      "lang": 2021,
      "vre": 2022,
      "vel": 2023,
      "deren": 2024,
      "mant": 2025,
      "suc": 2026,
      "stands": 2027,
      "heavy": 2028,
      "weibliche": 2029,
      "hy": 2030,
      "laun": 2031,
      "next": 2032,
      "avec": 2033,
      "kran": 2034,
      "fie": 2035,
      "flu": 2036,
      "ilia": 2037,
      "today": 2038,
      "alter": 2039,
      "denn": 2040,
      "herm": 2041,
      "wol": 2042,
      "mittel": 2043,
      "achilles": 2044,
      "banish": 2045,
      "nahme": 2046,
      "imogen": 2047,
      "cardinal": 2048,
      "knew": 2049,
      "lé": 2050,
      "zä": 2051,
      "ina": 2052,
      "ground": 2053,
      "voir": 2054,
      "enemy": 2055,
      "trius": 2056,
      "demetrius": 2057,
      "mess": 2058,
      "tin": 2059,
      "ues": 2060,
      "vö": 2061,
      "want": 2062,
      "wonder": 2063,
      "schließ": 2064,
      "saint": 2065,
      "subject": 2066,
      "pun": 2067,
      "twent": 2068,
      "throw": 2069,
      "eno": 2070,
      "orland": 2071,
      "town": 2072,
      "famili": 2073,
      "entwicklung": 2074,
      "launce": 2075,
      "orlando": 2076,
      "ding": 2077,
      "hind": 2078,
      "moun": 2079,
      "van": 2080,
      "ourish": 2081,
      "diff": 2082,
      "speech": 2083,
      "twas": 2084,
      "heim": 2085,
      "kein": 2086,
      "woe": 2087,
      "six": 2088,
      "grie": 2089,
      "lui": 2090,
      "offen": 2091,
      "iii": 2092,
      "zusammen": 2093,
      "valiant": 2094,
      "twenty": 2095,
      "batt": 2096,
      "kno": 2097,
      "lond": 2098,
      "almost": 2099,
      "worse": 2100,
      "counter": 2101,
      "straight": 2102,
      "olivia": 2103,
      "isabella": 2104,
      "eat": 2105,
      "idi": 2106,
      "richt": 2107,
      "schr": 2108,
      "pair": 2109,
      "guard": 2110,
      "palace": 2111,
      "organis": 2112,
      "ds": 2113,
      "hän": 2114,
      "pier": 2115,
      "wend": 2116,
      "bedeut": 2117,
      "note": 2118,
      "haste": 2119,
      "weak": 2120,
      "themselves": 2121,
      "frauenbewegung": 2122,
      "london": 2123,
      "action": 2124,
      "having": 2125,
      "bosom": 2126,
      "voice": 2127,
      "ears": 2128,
      "fles": 2129,
      "pare": 2130,
      "hair": 2131,
      "liber": 2132,
      "rah": 2133,
      "berland": 2134,
      "short": 2135,
      "mensch": 2136,
      "drum": 2137,
      "priv": 2138,
      "bad": 2139,
      "ated": 2140,
      "gehen": 2141,
      "edm": 2142,
      "bow": 2143,
      "earl": 2144,
      "romeo": 2145,
      "deliver": 2146,
      "excellent": 2147,
      "twi": 2148,
      "ano": 2149,
      "rey": 2150,
      "unless": 2151,
      "somer": 2152,
      "cover": 2153,
      "pedro": 2154,
      "vier": 2155,
      "emilia": 2156,
      "counsel": 2157,
      "begin": 2158,
      "strike": 2159,
      "enobar": 2160,
      "cret": 2161,
      "ef": 2162,
      "gie": 2163,
      "gif": 2164,
      "test": 2165,
      "revol": 2166,
      "asure": 2167,
      "door": 2168,
      "mock": 2169,
      "lebens": 2170,
      "enobarbus": 2171,
      "cup": 2172,
      "dent": 2173,
      "öß": 2174,
      "report": 2175,
      "lips": 2176,
      "withal": 2177,
      "prolet": 2178,
      "vius": 2179,
      "married": 2180,
      "northum": 2181,
      "bestimm": 2182,
      "julia": 2183,
      "virtu": 2184,
      "hausindustrie": 2185,
      "proletar": 2186,
      "northumberland": 2187,
      "methinks": 2188,
      "forder": 2189,
      "lio": 2190,
      "book": 2191,
      "ganz": 2192,
      "duty": 2193,
      "dest": 2194,
      "elle": 2195,
      "lust": 2196,
      "mill": 2197,
      "soft": 2198,
      "être": 2199,
      "ersch": 2200,
      "ital": 2201,
      "leont": 2202,
      "sehr": 2203,
      "geben": 2204,
      "favour": 2205,
      "feel": 2206,
      "charm": 2207,
      "falls": 2208,
      "spoke": 2209,
      "viola": 2210,
      "60": 2211,
      "80": 2212,
      "nest": 2213,
      "pret": 2214,
      "leontes": 2215,
      "ohne": 2216,
      "tern": 2217,
      "post": 2218,
      "streng": 2219,
      "hastings": 2220,
      "bly": 2221,
      "cro": 2222,
      "dg": 2223,
      "mod": 2224,
      "thur": 2225,
      "stir": 2226,
      "lea": 2227,
      "white": 2228,
      "already": 2229,
      "gewer": 2230,
      "dieu": 2231,
      "sirrah": 2232,
      "gives": 2233,
      "hark": 2234,
      "était": 2235,
      "somerset": 2236,
      "ali": 2237,
      "fan": 2238,
      "glad": 2239,
      "tres": 2240,
      "scar": 2241,
      "voll": 2242,
      "volio": 2243,
      "setz": 2244,
      "needs": 2245,
      "traitor": 2246,
      "above": 2247,
      "sozial": 2248,
      "24": 2249,
      "rent": 2250,
      "tou": 2251,
      "zwei": 2252,
      "isbury": 2253,
      "sever": 2254,
      "ladies": 2255,
      "eter": 2256,
      "provo": 2257,
      "ague": 2258,
      "größ": 2259,
      "pale": 2260,
      "hör": 2261,
      "salisbury": 2262,
      "beschäft": 2263,
      "gy": 2264,
      "sess": 2265,
      "wach": 2266,
      "rag": 2267,
      "eding": 2268,
      "shepher": 2269,
      "sible": 2270,
      "frauenarbeit": 2271,
      "ways": 2272,
      "liege": 2273,
      "flourish": 2274,
      "folgen": 2275,
      "dienstboten": 2276,
      "public": 2277,
      "prospero": 2278,
      "fing": 2279,
      "ices": 2280,
      "ko": 2281,
      "mé": 2282,
      "var": 2283,
      "isen": 2284,
      "leg": 2285,
      "become": 2286,
      "duch": 2287,
      "troy": 2288,
      "heavens": 2289,
      "ade": 2290,
      "dish": 2291,
      "hm": 2292,
      "hur": 2293,
      "stop": 2294,
      "deny": 2295,
      "marcius": 2296,
      "mont": 2297,
      "offer": 2298,
      "tram": 2299,
      "wieder": 2300,
      "walk": 2301,
      "zwischen": 2302,
      "dden": 2303,
      "eas": 2304,
      "ften": 2305,
      "fford": 2306,
      "même": 2307,
      "nt": 2308,
      "nation": 2309,
      "sous": 2310,
      "tor": 2311,
      "rep": 2312,
      "häus": 2313,
      "halten": 2314,
      "gegenüber": 2315,
      "suffer": 2316,
      "arbeitszeit": 2317,
      "clifford": 2318,
      "idius": 2319,
      "hours": 2320,
      "erinnen": 2321,
      "soll": 2322,
      "fell": 2323,
      "frü": 2324,
      "wherefore": 2325,
      "join": 2326,
      "respect": 2327,
      "presently": 2328,
      "attendants": 2329,
      "duchess": 2330,
      "eing": 2331,
      "nte": 2332,
      "sou": 2333,
      "wretch": 2334,
      "unk": 2335,
      "sebast": 2336,
      "hood": 2337,
      "riage": 2338,
      "grund": 2339,
      "scorn": 2340,
      "appro": 2341,
      "charles": 2342,
      "witness": 2343,
      "pluck": 2344,
      "flesh": 2345,
      "sebastian": 2346,
      "fill": 2347,
      "five": 2348,
      "anon": 2349,
      "uni": 2350,
      "rob": 2351,
      "lion": 2352,
      "tranio": 2353,
      "marcus": 2354,
      "daher": 2355,
      "müs": 2356,
      "mutter": 2357,
      "bürgerlichen": 2358,
      "num": 2359,
      "oren": 2360,
      "beau": 2361,
      "consci": 2362,
      "ult": 2363,
      "grat": 2364,
      "christ": 2365,
      "sicinius": 2366,
      "hunder": 2367,
      "riff": 2368,
      "mortal": 2369,
      "corn": 2370,
      "wake": 2371,
      "laugh": 2372,
      "simple": 2373,
      "sm": 2374,
      "sma": 2375,
      "liv": 2376,
      "sooth": 2377,
      "bertram": 2378,
      "acqu": 2379,
      "patient": 2380,
      "signior": 2381,
      "entreat": 2382,
      "nung": 2383,
      "isch": 2384,
      "order": 2385,
      "lly": 2386,
      "maß": 2387,
      "died": 2388,
      "kings": 2389,
      "wars": 2390,
      "fig": 2391,
      "hide": 2392,
      "mt": 2393,
      "öff": 2394,
      "teach": 2395,
      "hervor": 2396,
      "eds": 2397,
      "proce": 2398,
      "dark": 2399,
      "folk": 2400,
      "lucio": 2401,
      "centio": 2402,
      "slave": 2403,
      "shepherd": 2404,
      "fat": 2405,
      "cha": 2406,
      "often": 2407,
      "held": 2408,
      "coward": 2409,
      "verb": 2410,
      "ped": 2411,
      "hero": 2412,
      "tensi": 2413,
      "caius": 2414,
      "worship": 2415,
      "office": 2416,
      "flatter": 2417,
      "temp": 2418,
      "zurück": 2419,
      "loss": 2420,
      "apemant": 2421,
      "kraft": 2422,
      "strength": 2423,
      "apemantus": 2424,
      "été": 2425,
      "angestell": 2426,
      "stunden": 2427,
      "sey": 2428,
      "feast": 2429,
      "morning": 2430,
      "sport": 2431,
      "demand": 2432,
      "wherein": 2433,
      "resol": 2434,
      "ihrem": 2435,
      "häuf": 2436,
      "anderen": 2437,
      "silvia": 2438,
      "satis": 2439,
      "40": 2440,
      "70": 2441,
      "rever": 2442,
      "ley": 2443,
      "macht": 2444,
      "kell": 2445,
      "amer": 2446,
      "among": 2447,
      "wouldst": 2448,
      "lucentio": 2449,
      "possess": 2450,
      "ville": 2451,
      "letters": 2452,
      "heirat": 2453,
      "avait": 2454,
      "kur": 2455,
      "wand": 2456,
      "arma": 2457,
      "beast": 2458,
      "ked": 2459,
      "norfolk": 2460,
      "trib": 2461,
      "bildung": 2462,
      "harm": 2463,
      "ante": 2464,
      "ones": 2465,
      "alb": 2466,
      "faire": 2467,
      "sudden": 2468,
      "poison": 2469,
      "illo": 2470,
      "case": 2471,
      "dull": 2472,
      "speaks": 2473,
      "hortensi": 2474,
      "posthum": 2475,
      "malvolio": 2476,
      "conscience": 2477,
      "posthumus": 2478,
      "aja": 2479,
      "cure": 2480,
      "dur": 2481,
      "lassen": 2482,
      "erzie": 2483,
      "wicke": 2484,
      "lordship": 2485,
      "emper": 2486,
      "fres": 2487,
      "judg": 2488,
      "spirits": 2489,
      "passion": 2490,
      "ajax": 2491,
      "dad": 2492,
      "kate": 2493,
      "receive": 2494,
      "conce": 2495,
      "kingdom": 2496,
      "vantage": 2497,
      "tempt": 2498,
      "slain": 2499,
      "bassanio": 2500,
      "75": 2501,
      "ato": 2502,
      "nom": 2503,
      "celia": 2504,
      "ala": 2505,
      "lack": 2506,
      "auß": 2507,
      "schul": 2508,
      "eines": 2509,
      "sieur": 2510,
      "vom": 2511,
      "arbeiterin": 2512,
      "write": 2513,
      "learn": 2514,
      "camillo": 2515,
      "battle": 2516,
      "cen": 2517,
      "eli": 2518,
      "fash": 2519,
      "hil": 2520,
      "ines": 2521,
      "vern": 2522,
      "thersit": 2523,
      "cheer": 2524,
      "sense": 2525,
      "kampf": 2526,
      "fetch": 2527,
      "thersites": 2528,
      "ae": 2529,
      "cred": 2530,
      "ehe": 2531,
      "eben": 2532,
      "gé": 2533,
      "gend": 2534,
      "sigh": 2535,
      "zust": 2536,
      "öch": 2537,
      "wild": 2538,
      "rien": 2539,
      "wers": 2540,
      "drück": 2541,
      "temps": 2542,
      "witch": 2543,
      "commend": 2544,
      "claud": 2545,
      "homme": 2546,
      "armado": 2547,
      "bap": 2548,
      "tar": 2549,
      "twere": 2550,
      "sem": 2551,
      "dev": 2552,
      "widow": 2553,
      "living": 2554,
      "entlich": 2555,
      "sole": 2556,
      "fach": 2557,
      "feit": 2558,
      "brief": 2559,
      "schaften": 2560,
      "children": 2561,
      "countess": 2562,
      "small": 2563,
      "dadurch": 2564,
      "loving": 2565,
      "cym": 2566,
      "fully": 2567,
      "murther": 2568,
      "baptis": 2569,
      "kath": 2570,
      "swi": 2571,
      "wd": 2572,
      "zwe": 2573,
      "ities": 2574,
      "ders": 2575,
      "peu": 2576,
      "maria": 2577,
      "whole": 2578,
      "opin": 2579,
      "core": 2580,
      "bishop": 2581,
      "silence": 2582,
      "beline": 2583,
      "polit": 2584,
      "geschlechts": 2585,
      "eliza": 2586,
      "cymbeline": 2587,
      "hund": 2588,
      "behind": 2589,
      "sei": 2590,
      "machen": 2591,
      "iment": 2592,
      "lichkeit": 2593,
      "affection": 2594,
      "jahren": 2595,
      "costard": 2596,
      "elizabeth": 2597,
      "hundred": 2598,
      "cin": 2599,
      "mid": 2600,
      "nun": 2601,
      "ule": 2602,
      "rait": 2603,
      "labour": 2604,
      "amor": 2605,
      "produ": 2606,
      "ages": 2607,
      "plant": 2608,
      "understand": 2609,
      "heads": 2610,
      "deeds": 2611,
      "franç": 2612,
      "klär": 2613,
      "männlichen": 2614,
      "müssen": 2615,
      "bil": 2616,
      "fond": 2617,
      "mn": 2618,
      "mour": 2619,
      "ature": 2620,
      "rece": 2621,
      "reck": 2622,
      "seit": 2623,
      "health": 2624,
      "alar": 2625,
      "lafeu": 2626,
      "marriage": 2627,
      "grant": 2628,
      "green": 2629,
      "honou": 2630,
      "close": 2631,
      "hortensio": 2632,
      "baptista": 2633,
      "bond": 2634,
      "mp": 2635,
      "ées": 2636,
      "beard": 2637,
      "erei": 2638,
      "aum": 2639,
      "trans": 2640,
      "hamlet": 2641,
      "mighty": 2642,
      "clus": 2643,
      "quelques": 2644,
      "bianca": 2645,
      "pretty": 2646,
      "fashion": 2647,
      "athen": 2648,
      "mie": 2649,
      "sehen": 2650,
      "lius": 2651,
      "consent": 2652,
      "wood": 2653,
      "dabei": 2654,
      "treason": 2655,
      "firm": 2656,
      "seems": 2657,
      "choose": 2658,
      "lender": 2659,
      "provost": 2660,
      "22": 2661,
      "bir": 2662,
      "dread": 2663,
      "eigen": 2664,
      "eks": 2665,
      "fine": 2666,
      "hlt": 2667,
      "ähr": 2668,
      "iste": 2669,
      "notwend": 2670,
      "ourselves": 2671,
      "peut": 2672,
      "tale": 2673,
      "takes": 2674,
      "conc": 2675,
      "phin": 2676,
      "burg": 2677,
      "harry": 2678,
      "wissen": 2679,
      "promise": 2680,
      "whilst": 2681,
      "außer": 2682,
      "dessen": 2683,
      "ulys": 2684,
      "ersten": 2685,
      "infolge": 2686,
      "reign": 2687,
      "dece": 2688,
      "doctor": 2689,
      "proof": 2690,
      "brit": 2691,
      "monsieur": 2692,
      "breast": 2693,
      "fortunes": 2694,
      "possible": 2695,
      "match": 2696,
      "patch": 2697,
      "souls": 2698,
      "ulysses": 2699,
      "dun": 2700,
      "ix": 2701,
      "oester": 2702,
      "sau": 2703,
      "slender": 2704,
      "vain": 2705,
      "err": 2706,
      "ery": 2707,
      "enem": 2708,
      "ket": 2709,
      "adri": 2710,
      "pris": 2711,
      "ement": 2712,
      "parts": 2713,
      "dauphin": 2714,
      "pfle": 2715,
      "carry": 2716,
      "großen": 2717,
      "berufs": 2718,
      "oesterreich": 2719,
      "ghost": 2720,
      "sam": 2721,
      "äd": 2722,
      "anci": 2723,
      "also": 2724,
      "along": 2725,
      "igo": 2726,
      "shy": 2727,
      "longer": 2728,
      "jahrhunder": 2729,
      "hostess": 2730,
      "courage": 2731,
      "princes": 2732,
      "emperor": 2733,
      "alarum": 2734,
      "bare": 2735,
      "wing": 2736,
      "thor": 2737,
      "issue": 2738,
      "chten": 2739,
      "beam": 2740,
      "noise": 2741,
      "forget": 2742,
      "igsten": 2743,
      "going": 2744,
      "neigh": 2745,
      "zug": 2746,
      "duff": 2747,
      "phy": 2748,
      "pride": 2749,
      "cloten": 2750,
      "flor": 2751,
      "servants": 2752,
      "krä": 2753,
      "katherina": 2754,
      "enemies": 2755,
      "23": 2756,
      "ör": 2757,
      "bears": 2758,
      "quite": 2759,
      "quiet": 2760,
      "neben": 2761,
      "dige": 2762,
      "cade": 2763,
      "gering": 2764,
      "year": 2765,
      "brace": 2766,
      "judge": 2767,
      "macduff": 2768,
      "bitter": 2769,
      "trouble": 2770,
      "allgemeinen": 2771,
      "zähl": 2772,
      "kathar": 2773,
      "shylock": 2774,
      "cun": 2775,
      "pin": 2776,
      "sus": 2777,
      "ude": 2778,
      "este": 2779,
      "iter": 2780,
      "remem": 2781,
      "alous": 2782,
      "laer": 2783,
      "versich": 2784,
      "neu": 2785,
      "contin": 2786,
      "ueber": 2787,
      "besides": 2788,
      "masters": 2789,
      "castle": 2790,
      "katharine": 2791,
      "11": 2792,
      "fang": 2793,
      "mille": 2794,
      "winter": 2795,
      "xen": 2796,
      "encore": 2797,
      "medi": 2798,
      "alten": 2799,
      "beste": 2800,
      "blind": 2801,
      "natu": 2802,
      "crue": 2803,
      "seiner": 2804,
      "bottom": 2805,
      "maschine": 2806,
      "giebt": 2807,
      "amerik": 2808,
      "65": 2809,
      "dri": 2810,
      "daf": 2811,
      "ilo": 2812,
      "wag": 2813,
      "statt": 2814,
      "nos": 2815,
      "roder": 2816,
      "cep": 2817,
      "iron": 2818,
      "ignor": 2819,
      "verne": 2820,
      "amb": 2821,
      "ounded": 2822,
      "brain": 2823,
      "ktion": 2824,
      "stood": 2825,
      "evans": 2826,
      "thätigkeit": 2827,
      "familien": 2828,
      "effect": 2829,
      "fresh": 2830,
      "roderigo": 2831,
      "athe": 2832,
      "cross": 2833,
      "isse": 2834,
      "hed": 2835,
      "mali": 2836,
      "artic": 2837,
      "endre": 2838,
      "worst": 2839,
      "spit": 2840,
      "dazu": 2841,
      "grey": 2842,
      "zeich": 2843,
      "paper": 2844,
      "188": 2845,
      "presence": 2846,
      "ique": 2847,
      "kre": 2848,
      "lend": 2849,
      "ober": 2850,
      "zwar": 2851,
      "ved": 2852,
      "rap": 2853,
      "laid": 2854,
      "follo": 2855,
      "anything": 2856,
      "horn": 2857,
      "boys": 2858,
      "wisdom": 2859,
      "finden": 2860,
      "camp": 2861,
      "häufig": 2862,
      "opinion": 2863,
      "adieu": 2864,
      "cir": 2865,
      "py": 2866,
      "wast": 2867,
      "yond": 2868,
      "issa": 2869,
      "stü": 2870,
      "seal": 2871,
      "forgot": 2872,
      "rain": 2873,
      "alo": 2874,
      "taken": 2875,
      "cominius": 2876,
      "moth": 2877,
      "aga": 2878,
      "arbeiten": 2879,
      "steal": 2880,
      "weniger": 2881,
      "fools": 2882,
      "buy": 2883,
      "beding": 2884,
      "pisanio": 2885,
      "hermia": 2886,
      "charmian": 2887,
      "modest": 2888,
      "judgment": 2889,
      "dafür": 2890,
      "awhile": 2891,
      "gates": 2892,
      "sco": 2893,
      "tung": 2894,
      "vou": 2895,
      "forward": 2896,
      "wealth": 2897,
      "quer": 2898,
      "ilie": 2899,
      "poins": 2900,
      "sche": 2901,
      "schwer": 2902,
      "shar": 2903,
      "due": 2904,
      "grum": 2905,
      "ihres": 2906,
      "wirk": 2907,
      "dru": 2908,
      "troth": 2909,
      "curse": 2910,
      "dangerous": 2911,
      "lysander": 2912,
      "officer": 2913,
      "erwerbs": 2914,
      "virtuous": 2915,
      "drown": 2916,
      "fier": 2917,
      "nes": 2918,
      "tant": 2919,
      "inno": 2920,
      "indem": 2921,
      "verheirat": 2922,
      "shake": 2923,
      "adv": 2924,
      "nichts": 2925,
      "phili": 2926,
      "foolish": 2927,
      "shows": 2928,
      "alex": 2929,
      "occas": 2930,
      "quarrel": 2931,
      "francs": 2932,
      "number": 2933,
      "acquain": 2934,
      "honourable": 2935,
      "bess": 2936,
      "bill": 2937,
      "thin": 2938,
      "chte": 2939,
      "reli": 2940,
      "least": 2941,
      "haupt": 2942,
      "tear": 2943,
      "dience": 2944,
      "boyet": 2945,
      "steht": 2946,
      "fois": 2947,
      "glie": 2948,
      "voy": 2949,
      "hadst": 2950,
      "iano": 2951,
      "valour": 2952,
      "gainst": 2953,
      "wolsey": 2954,
      "völ": 2955,
      "birth": 2956,
      "agamem": 2957,
      "28": 2958,
      "iben": 2959,
      "rän": 2960,
      "wine": 2961,
      "zt": 2962,
      "church": 2963,
      "andere": 2964,
      "atten": 2965,
      "stain": 2966,
      "measure": 2967,
      "usur": 2968,
      "weise": 2969,
      "edg": 2970,
      "tains": 2971,
      "moins": 2972,
      "proper": 2973,
      "sache": 2974,
      "viol": 2975,
      "tige": 2976,
      "beggar": 2977,
      "ledge": 2978,
      "wales": 2979,
      "journ": 2980,
      "summer": 2981,
      "gewerbe": 2982,
      "univer": 2983,
      "gratiano": 2984,
      "natural": 2985,
      "agamemnon": 2986,
      "34": 2987,
      "dain": 2988,
      "ihm": 2989,
      "où": 2990,
      "pho": 2991,
      "smo": 2992,
      "song": 2993,
      "sitt": 2994,
      "erre": 2995,
      "esy": 2996,
      "alen": 2997,
      "ered": 2998,
      "kept": 2999,
      "eten": 3000,
      "consi": 3001,
      "selben": 3002,
      "sail": 3003,
      "double": 3004,
      "familie": 3005,
      "faults": 3006,
      "motion": 3007,
      "piece": 3008,
      "schließlich": 3009,
      "approach": 3010,
      "35": 3011,
      "dle": 3012,
      "tur": 3013,
      "vé": 3014,
      "thro": 3015,
      "escal": 3016,
      "ites": 3017,
      "heure": 3018,
      "whip": 3019,
      "gewerk": 3020,
      "herself": 3021,
      "contre": 3022,
      "exp": 3023,
      "exeter": 3024,
      "perceive": 3025,
      "ular": 3026,
      "spur": 3027,
      "aufidius": 3028,
      "treten": 3029,
      "vail": 3030,
      "deutschen": 3031,
      "dinner": 3032,
      "escalus": 3033,
      "aar": 3034,
      "iach": 3035,
      "vouch": 3036,
      "army": 3037,
      "secret": 3038,
      "ente": 3039,
      "berlin": 3040,
      "moi": 3041,
      "month": 3042,
      "offence": 3043,
      "execut": 3044,
      "weiter": 3045,
      "vielfach": 3046,
      "nehmen": 3047,
      "löhne": 3048,
      "whether": 3049,
      "aaron": 3050,
      "rück": 3051,
      "tä": 3052,
      "erste": 3053,
      "fahr": 3054,
      "beru": 3055,
      "worden": 3056,
      "dame": 3057,
      "jealous": 3058,
      "honor": 3059,
      "pract": 3060,
      "jack": 3061,
      "puis": 3062,
      "condition": 3063,
      "sort": 3064,
      "autre": 3065,
      "selbstän": 3066,
      "hubert": 3067,
      "gebung": 3068,
      "instant": 3069,
      "verschie": 3070,
      "grumio": 3071,
      "iachimo": 3072,
      "dann": 3073,
      "fant": 3074,
      "vra": 3075,
      "wra": 3076,
      "erin": 3077,
      "arg": 3078,
      "meist": 3079,
      "lim": 3080,
      "import": 3081,
      "schle": 3082,
      "commission": 3083,
      "einz": 3084,
      "entertain": 3085,
      "moreland": 3086,
      "lossen": 3087,
      "murderer": 3088,
      "westmoreland": 3089,
      "völker": 3090,
      "bull": 3091,
      "fro": 3092,
      "ply": 3093,
      "angr": 3094,
      "ouve": 3095,
      "stor": 3096,
      "ingly": 3097,
      "celle": 3098,
      "mage": 3099,
      "fee": 3100,
      "tag": 3101,
      "affair": 3102,
      "plague": 3103,
      "votre": 3104,
      "monster": 3105,
      "dress": 3106,
      "hearing": 3107,
      "ganze": 3108,
      "große": 3109,
      "rosaline": 3110,
      "führen": 3111,
      "nahmen": 3112,
      "direct": 3113,
      "octa": 3114,
      "käm": 3115,
      "large": 3116,
      "fluß": 3117,
      "hurt": 3118,
      "angry": 3119,
      "dry": 3120,
      "fled": 3121,
      "mio": 3122,
      "zb": 3123,
      "thom": 3124,
      "thither": 3125,
      "ises": 3126,
      "orge": 3127,
      "ariel": 3128,
      "leurs": 3129,
      "welt": 3130,
      "schri": 3131,
      "comb": 3132,
      "thence": 3133,
      "reads": 3134,
      "temper": 3135,
      "borne": 3136,
      "mäß": 3137,
      "golden": 3138,
      "pains": 3139,
      "colour": 3140,
      "obey": 3141,
      "aguecheek": 3142,
      "kellner": 3143,
      "ebenso": 3144,
      "eth": 3145,
      "gou": 3146,
      "sland": 3147,
      "unge": 3148,
      "depart": 3149,
      "shape": 3150,
      "près": 3151,
      "ify": 3152,
      "einzel": 3153,
      "gremio": 3154,
      "dispatch": 3155,
      "brook": 3156,
      "trois": 3157,
      "calls": 3158,
      "holds": 3159,
      "bedür": 3160,
      "sorry": 3161,
      "drawn": 3162,
      "reichen": 3163,
      "purse": 3164,
      "title": 3165,
      "beschrän": 3166,
      "employ": 3167,
      "success": 3168,
      "ease": 3169,
      "mere": 3170,
      "pite": 3171,
      "sings": 3172,
      "tle": 3173,
      "ual": 3174,
      "œu": 3175,
      "chant": 3176,
      "lier": 3177,
      "tail": 3178,
      "uellen": 3179,
      "wash": 3180,
      "steph": 3181,
      "abs": 3182,
      "absol": 3183,
      "besto": 3184,
      "senator": 3185,
      "fearful": 3186,
      "humour": 3187,
      "kranken": 3188,
      "adriana": 3189,
      "26": 3190,
      "29": 3191,
      "48": 3192,
      "aking": 3193,
      "alive": 3194,
      "hie": 3195,
      "smil": 3196,
      "tamor": 3197,
      "ön": 3198,
      "thunder": 3199,
      "unde": 3200,
      "rose": 3201,
      "ades": 3202,
      "schla": 3203,
      "tage": 3204,
      "persu": 3205,
      "victor": 3206,
      "train": 3207,
      "tyr": 3208,
      "priest": 3209,
      "trotz": 3210,
      "kennt": 3211,
      "minister": 3212,
      "coup": 3213,
      "gesetzgebung": 3214,
      "view": 3215,
      "scarce": 3216,
      "stephano": 3217,
      "tamora": 3218,
      "200": 3219,
      "36": 3220,
      "crow": 3221,
      "gil": 3222,
      "rous": 3223,
      "rate": 3224,
      "wain": 3225,
      "ischer": 3226,
      "whither": 3227,
      "schn": 3228,
      "moor": 3229,
      "umn": 3230,
      "jove": 3231,
      "drunk": 3232,
      "hatten": 3233,
      "fluellen": 3234,
      "trium": 3235,
      "wäre": 3236,
      "konnte": 3237,
      "geschlecht": 3238,
      "juliet": 3239,
      "zunah": 3240,
      "zunäch": 3241,
      "läßt": 3242,
      "dishon": 3243,
      "versicherung": 3244,
      "zunächst": 3245,
      "39": 3246,
      "ama": 3247,
      "cate": 3248,
      "frown": 3249,
      "imag": 3250,
      "kins": 3251,
      "round": 3252,
      "ances": 3253,
      "lewis": 3254,
      "medes": 3255,
      "heute": 3256,
      "trä": 3257,
      "ards": 3258,
      "jaques": 3259,
      "blame": 3260,
      "staaten": 3261,
      "touchstone": 3262,
      "saturn": 3263,
      "kneel": 3264,
      "officers": 3265,
      "proceed": 3266,
      "consider": 3267,
      "jours": 3268,
      "kauf": 3269,
      "mart": 3270,
      "erklär": 3271,
      "esse": 3272,
      "chain": 3273,
      "stick": 3274,
      "leis": 3275,
      "weary": 3276,
      "ged": 3277,
      "percy": 3278,
      "jewel": 3279,
      "stern": 3280,
      "ommen": 3281,
      "cloud": 3282,
      "honesty": 3283,
      "lina": 3284,
      "diomedes": 3285,
      "constable": 3286,
      "catch": 3287,
      "verhältnisse": 3288,
      "wachsen": 3289,
      "swift": 3290,
      "bau": 3291,
      "loren": 3292,
      "nam": 3293,
      "uit": 3294,
      "wounds": 3295,
      "armen": 3296,
      "lei": 3297,
      "wicht": 3298,
      "forbid": 3299,
      "condu": 3300,
      "commit": 3301,
      "woll": 3302,
      "genos": 3303,
      "venice": 3304,
      "glory": 3305,
      "jew": 3306,
      "assur": 3307,
      "blow": 3308,
      "greater": 3309,
      "clock": 3310,
      "ption": 3311,
      "wait": 3312,
      "staat": 3313,
      "damn": 3314,
      "bald": 3315,
      "paulina": 3316,
      "trumpets": 3317,
      "nym": 3318,
      "menschen": 3319,
      "zunahme": 3320,
      "77": 3321,
      "dor": 3322,
      "fif": 3323,
      "gut": 3324,
      "kaum": 3325,
      "pes": 3326,
      "ume": 3327,
      "ét": 3328,
      "ofern": 3329,
      "deal": 3330,
      "hem": 3331,
      "road": 3332,
      "feed": 3333,
      "shadow": 3334,
      "taste": 3335,
      "proz": 3336,
      "einfluß": 3337,
      "duc": 3338,
      "spar": 3339,
      "monta": 3340,
      "prayers": 3341,
      "nisse": 3342,
      "profess": 3343,
      "walls": 3344,
      "satisf": 3345,
      "occasion": 3346,
      "49": 3347,
      "aene": 3348,
      "bird": 3349,
      "eu": 3350,
      "eper": 3351,
      "gin": 3352,
      "rise": 3353,
      "stro": 3354,
      "belle": 3355,
      "seven": 3356,
      "wider": 3357,
      "ined": 3358,
      "excuse": 3359,
      "caster": 3360,
      "blest": 3361,
      "partic": 3362,
      "vereine": 3363,
      "blessed": 3364,
      "struck": 3365,
      "gesell": 3366,
      "würde": 3367,
      "polixen": 3368,
      "gift": 3369,
      "polixenes": 3370,
      "agen": 3371,
      "big": 3372,
      "cé": 3373,
      "cum": 3374,
      "dition": 3375,
      "gross": 3376,
      "ime": 3377,
      "lors": 3378,
      "wound": 3379,
      "wits": 3380,
      "inn": 3381,
      "arius": 3382,
      "remain": 3383,
      "meant": 3384,
      "bevölker": 3385,
      "verse": 3386,
      "allem": 3387,
      "stellen": 3388,
      "fold": 3389,
      "glass": 3390,
      "whereof": 3391,
      "lieuten": 3392,
      "besit": 3393,
      "jamais": 3394,
      "corr": 3395,
      "peter": 3396,
      "rude": 3397,
      "humble": 3398,
      "drei": 3399,
      "visit": 3400,
      "street": 3401,
      "prisoner": 3402,
      "ständ": 3403,
      "knock": 3404,
      "kräfte": 3405,
      "aeneas": 3406,
      "38": 3407,
      "59": 3408,
      "aient": 3409,
      "cing": 3410,
      "cates": 3411,
      "dess": 3412,
      "eig": 3413,
      "fand": 3414,
      "gir": 3415,
      "ping": 3416,
      "rough": 3417,
      "shr": 3418,
      "äuß": 3419,
      "intend": 3420,
      "request": 3421,
      "tower": 3422,
      "habit": 3423,
      "forest": 3424,
      "former": 3425,
      "making": 3426,
      "supp": 3427,
      "poin": 3428,
      "wochen": 3429,
      "bright": 3430,
      "jedoch": 3431,
      "drop": 3432,
      "belarius": 3433,
      "citizens": 3434,
      "thrice": 3435,
      "launcelot": 3436,
      "private": 3437,
      "druck": 3438,
      "philip": 3439,
      "kämpf": 3440,
      "lieutenant": 3441,
      "blie": 3442,
      "flow": 3443,
      "sme": 3444,
      "inde": 3445,
      "ators": 3446,
      "stum": 3447,
      "rogue": 3448,
      "vey": 3449,
      "vell": 3450,
      "utter": 3451,
      "lavin": 3452,
      "doing": 3453,
      "author": 3454,
      "necess": 3455,
      "rid": 3456,
      "dient": 3457,
      "poet": 3458,
      "iful": 3459,
      "exam": 3460,
      "tier": 3461,
      "aussi": 3462,
      "trem": 3463,
      "prepare": 3464,
      "clear": 3465,
      "lancaster": 3466,
      "spring": 3467,
      "ancient": 3468,
      "thomas": 3469,
      "lorenzo": 3470,
      "awake": 3471,
      "cust": 3472,
      "ière": 3473,
      "ßen": 3474,
      "ête": 3475,
      "anz": 3476,
      "rede": 3477,
      "hause": 3478,
      "delight": 3479,
      "weigh": 3480,
      "sogar": 3481,
      "notre": 3482,
      "pow": 3483,
      "prim": 3484,
      "endure": 3485,
      "embrace": 3486,
      "loved": 3487,
      "folly": 3488,
      "dagegen": 3489,
      "philo": 3490,
      "pucelle": 3491,
      "volumn": 3492,
      "höch": 3493,
      "fellows": 3494,
      "kommt": 3495,
      "ziehen": 3496,
      "whiles": 3497,
      "wretched": 3498,
      "français": 3499,
      "cunning": 3500,
      "boun": 3501,
      "fun": 3502,
      "hunt": 3503,
      "ln": 3504,
      "sé": 3505,
      "sli": 3506,
      "wies": 3507,
      "although": 3508,
      "versuch": 3509,
      "govern": 3510,
      "dix": 3511,
      "faut": 3512,
      "undy": 3513,
      "schu": 3514,
      "schne": 3515,
      "perform": 3516,
      "moral": 3517,
      "sici": 3518,
      "tire": 3519,
      "knowledge": 3520,
      "greet": 3521,
      "parce": 3522,
      "assung": 3523,
      "precious": 3524,
      "unterneh": 3525,
      "überall": 3526,
      "diesen": 3527,
      "brothers": 3528,
      "pflich": 3529,
      "halb": 3530,
      "kindness": 3531,
      "kör": 3532,
      "blick": 3533,
      "damit": 3534,
      "profit": 3535,
      "several": 3536,
      "smile": 3537,
      "plantagen": 3538,
      "burgundy": 3539,
      "bedürf": 3540,
      "triumph": 3541,
      "apo": 3542,
      "bend": 3543,
      "là": 3544,
      "san": 3545,
      "tief": 3546,
      "angen": 3547,
      "leans": 3548,
      "room": 3549,
      "uses": 3550,
      "fain": 3551,
      "fears": 3552,
      "advantage": 3553,
      "tritt": 3554,
      "scho": 3555,
      "desires": 3556,
      "shre": 3557,
      "shine": 3558,
      "iert": 3559,
      "until": 3560,
      "porter": 3561,
      "princely": 3562,
      "gaunt": 3563,
      "gesehen": 3564,
      "alack": 3565,
      "universit": 3566,
      "avoir": 3567,
      "jou": 3568,
      "list": 3569,
      "sca": 3570,
      "arri": 3571,
      "bew": 3572,
      "lic": 3573,
      "maiden": 3574,
      "neck": 3575,
      "heral": 3576,
      "suis": 3577,
      "iff": 3578,
      "arts": 3579,
      "selten": 3580,
      "cali": 3581,
      "oler": 3582,
      "jeder": 3583,
      "sometime": 3584,
      "mond": 3585,
      "greatness": 3586,
      "blunt": 3587,
      "blush": 3588,
      "guider": 3589,
      "diesem": 3590,
      "höher": 3591,
      "führt": 3592,
      "führung": 3593,
      "grows": 3594,
      "edmund": 3595,
      "finger": 3596,
      "erziehung": 3597,
      "plantagenet": 3598,
      "76": 3599,
      "aid": 3600,
      "cte": 3601,
      "cried": 3602,
      "gang": 3603,
      "kn": 3604,
      "lum": 3605,
      "ox": 3606,
      "pure": 3607,
      "städ": 3608,
      "imes": 3609,
      "allow": 3610,
      "dious": 3611,
      "protest": 3612,
      "dumain": 3613,
      "scri": 3614,
      "paid": 3615,
      "unterstü": 3616,
      "putation": 3617,
      "bearing": 3618,
      "compan": 3619,
      "keeps": 3620,
      "tongues": 3621,
      "jury": 3622,
      "figure": 3623,
      "sharp": 3624,
      "glieder": 3625,
      "guiderius": 3626,
      "après": 3627,
      "gate": 3628,
      "iz": 3629,
      "mend": 3630,
      "mier": 3631,
      "ished": 3632,
      "ref": 3633,
      "toly": 3634,
      "entlichen": 3635,
      "lament": 3636,
      "terms": 3637,
      "quire": 3638,
      "autoly": 3639,
      "fac": 3640,
      "fame": 3641,
      "conna": 3642,
      "moder": 3643,
      "moment": 3644,
      "safet": 3645,
      "goodly": 3646,
      "servi": 3647,
      "whence": 3648,
      "monstr": 3649,
      "brow": 3650,
      "natür": 3651,
      "fün": 3652,
      "ganzen": 3653,
      "banquo": 3654,
      "bones": 3655,
      "schritt": 3656,
      "wicked": 3657,
      "lavinia": 3658,
      "körper": 3659,
      "autolycus": 3660,
      "74": 3661,
      "dür": 3662,
      "dance": 3663,
      "gn": 3664,
      "hit": 3665,
      "ihn": 3666,
      "lit": 3667,
      "mu": 3668,
      "owe": 3669,
      "yonder": 3670,
      "inus": 3671,
      "instr": 3672,
      "arthur": 3673,
      "anda": 3674,
      "stol": 3675,
      "stät": 3676,
      "forgive": 3677,
      "mains": 3678,
      "cock": 3679,
      "igte": 3680,
      "fabian": 3681,
      "subst": 3682,
      "conse": 3683,
      "contr": 3684,
      "pron": 3685,
      "mow": 3686,
      "gens": 3687,
      "civil": 3688,
      "ties": 3689,
      "spend": 3690,
      "foes": 3691,
      "miss": 3692,
      "bling": 3693,
      "chester": 3694,
      "constant": 3695,
      "wesen": 3696,
      "defend": 3697,
      "differ": 3698,
      "twixt": 3699,
      "christian": 3700,
      "argument": 3701,
      "bevölkerung": 3702,
      "unternehmer": 3703,
      "safety": 3704,
      "ake": 3705,
      "bion": 3706,
      "dwell": 3707,
      "line": 3708,
      "nten": 3709,
      "wanton": 3710,
      "inv": 3711,
      "orleans": 3712,
      "llt": 3713,
      "itution": 3714,
      "hail": 3715,
      "dello": 3716,
      "heels": 3717,
      "rot": 3718,
      "roclus": 3719,
      "weber": 3720,
      "gele": 3721,
      "yourselves": 3722,
      "divi": 3723,
      "fail": 3724,
      "shouldst": 3725,
      "accus": 3726,
      "accord": 3727,
      "casca": 3728,
      "patroclus": 3729,
      "bisher": 3730,
      "ünst": 3731,
      "wrongs": 3732,
      "quelque": 3733,
      "archbishop": 3734,
      "maschinen": 3735,
      "liberty": 3736,
      "repent": 3737,
      "wrath": 3738,
      "montague": 3739,
      "biondello": 3740,
      "bou": 3741,
      "elt": 3742,
      "fish": 3743,
      "pid": 3744,
      "rare": 3745,
      "tter": 3746,
      "ores": 3747,
      "atz": 3748,
      "atre": 3749,
      "memor": 3750,
      "weap": 3751,
      "george": 3752,
      "lain": 3753,
      "aumer": 3754,
      "contra": 3755,
      "ums": 3756,
      "perfect": 3757,
      "blows": 3758,
      "arbeitern": 3759,
      "venture": 3760,
      "creature": 3761,
      "lawful": 3762,
      "fix": 3763,
      "quoi": 3764,
      "manners": 3765,
      "thurio": 3766,
      "leaves": 3767,
      "athens": 3768,
      "neighbour": 3769,
      "cruel": 3770,
      "malice": 3771,
      "bedingungen": 3772,
      "catesby": 3773,
      "caliban": 3774,
      "ica": 3775,
      "ss": 3776,
      "enjoy": 3777,
      "anch": 3778,
      "tomb": 3779,
      "melan": 3780,
      "nose": 3781,
      "sell": 3782,
      "geld": 3783,
      "ichten": 3784,
      "sav": 3785,
      "genug": 3786,
      "warm": 3787,
      "spent": 3788,
      "zeigt": 3789,
      "cheeks": 3790,
      "lands": 3791,
      "phrey": 3792,
      "avez": 3793,
      "gentlewoman": 3794,
      "richmond": 3795,
      "personne": 3796,
      "silver": 3797,
      "humphrey": 3798,
      "choice": 3799,
      "toutes": 3800,
      "cket": 3801,
      "skla": 3802,
      "zogen": 3803,
      "guilty": 3804,
      "herrsch": 3805,
      "loyal": 3806,
      "lég": 3807,
      "twice": 3808,
      "toute": 3809,
      "beschäftigt": 3810,
      "amaz": 3811,
      "fünf": 3812,
      "aumerle": 3813,
      "melancho": 3814,
      "aer": 3815,
      "äter": 3816,
      "eness": 3817,
      "intell": 3818,
      "stars": 3819,
      "legs": 3820,
      "lepid": 3821,
      "meat": 3822,
      "beha": 3823,
      "gefü": 3824,
      "teen": 3825,
      "ride": 3826,
      "faction": 3827,
      "proclaim": 3828,
      "steel": 3829,
      "foe": 3830,
      "gree": 3831,
      "breathe": 3832,
      "bray": 3833,
      "petition": 3834,
      "slau": 3835,
      "stuff": 3836,
      "francis": 3837,
      "towards": 3838,
      "jenigen": 3839,
      "organisation": 3840,
      "revolution": 3841,
      "angestellten": 3842,
      "credit": 3843,
      "remembr": 3844,
      "œuvre": 3845,
      "melancholy": 3846,
      "lepidus": 3847,
      "dum": 3848,
      "kun": 3849,
      "loud": 3850,
      "nu": 3851,
      "swords": 3852,
      "vine": 3853,
      "wak": 3854,
      "ût": 3855,
      "invent": 3856,
      "reme": 3857,
      "season": 3858,
      "cell": 3859,
      "weg": 3860,
      "loi": 3861,
      "keeper": 3862,
      "rip": 3863,
      "rice": 3864,
      "diana": 3865,
      "few": 3866,
      "express": 3867,
      "letz": 3868,
      "agit": 3869,
      "venge": 3870,
      "gerade": 3871,
      "landwirtschaft": 3872,
      "offend": 3873,
      "stranger": 3874,
      "theseus": 3875,
      "wards": 3876,
      "arbeiterschutz": 3877,
      "premier": 3878,
      "überhaupt": 3879,
      "petite": 3880,
      "wenig": 3881,
      "honours": 3882,
      "fert": 3883,
      "männern": 3884,
      "benedick": 3885,
      "oaths": 3886,
      "haltung": 3887,
      "gestellt": 3888,
      "gonz": 3889,
      "amerika": 3890,
      "execution": 3891,
      "smell": 3892,
      "69": 3893,
      "bb": 3894,
      "fought": 3895,
      "gte": 3896,
      "ible": 3897,
      "lou": 3898,
      "wander": 3899,
      "wöch": 3900,
      "zö": 3901,
      "thief": 3902,
      "real": 3903,
      "bezug": 3904,
      "heat": 3905,
      "heed": 3906,
      "alt": 3907,
      "alci": 3908,
      "gemacht": 3909,
      "quit": 3910,
      "ney": 3911,
      "ries": 3912,
      "hrung": 3913,
      "extre": 3914,
      "expect": 3915,
      "lets": 3916,
      "merchant": 3917,
      "abhor": 3918,
      "mayst": 3919,
      "mity": 3920,
      "incu": 3921,
      "madness": 3922,
      "natur": 3923,
      "darin": 3924,
      "ruin": 3925,
      "virgin": 3926,
      "follows": 3927,
      "dienstmädchen": 3928,
      "study": 3929,
      "bereit": 3930,
      "chamberlain": 3931,
      "krank": 3932,
      "nestor": 3933,
      "tribunes": 3934,
      "gouverne": 3935,
      "volumnia": 3936,
      "gonzalo": 3937,
      "150": 3938,
      "grown": 3939,
      "hill": 3940,
      "pend": 3941,
      "sour": 3942,
      "tort": 3943,
      "öhn": 3944,
      "instru": 3945,
      "ater": 3946,
      "story": 3947,
      "itali": 3948,
      "top": 3949,
      "roar": 3950,
      "lover": 3951,
      "shut": 3952,
      "mortim": 3953,
      "sack": 3954,
      "istes": 3955,
      "idle": 3956,
      "serving": 3957,
      "jede": 3958,
      "chef": 3959,
      "durchschn": 3960,
      "bridge": 3961,
      "throne": 3962,
      "müß": 3963,
      "viele": 3964,
      "niedr": 3965,
      "fiend": 3966,
      "betray": 3967,
      "katherine": 3968,
      "vows": 3969,
      "fancy": 3970,
      "article": 3971,
      "pyra": 3972,
      "affairs": 3973,
      "slander": 3974,
      "bestow": 3975,
      "school": 3976,
      "unterstütz": 3977,
      "egy": 3978,
      "kni": 3979,
      "tut": 3980,
      "zer": 3981,
      "andr": 3982,
      "stan": 3983,
      "meisten": 3984,
      "becomes": 3985,
      "doom": 3986,
      "etwa": 3987,
      "gown": 3988,
      "quoth": 3989,
      "quatre": 3990,
      "ione": 3991,
      "ads": 3992,
      "condem": 3993,
      "mov": 3994,
      "cture": 3995,
      "sage": 3996,
      "afford": 3997,
      "tide": 3998,
      "handels": 3999,
      "oph": 4000,
      "nerissa": 4001,
      "tybal": 4002,
      "prepar": 4003,
      "trop": 4004,
      "cloth": 4005,
      "000": 4006,
      "thrust": 4007,
      "jahres": 4008,
      "gleichen": 4009,
      "courtesy": 4010,
      "winchester": 4011,
      "fury": 4012,
      "berufen": 4013,
      "knee": 4014,
      "cuck": 4015,
      "schulen": 4016,
      "eigenen": 4017,
      "innocent": 4018,
      "monstrous": 4019,
      "mowbray": 4020,
      "mortimer": 4021,
      "45": 4022,
      "aim": 4023,
      "bung": 4024,
      "cil": 4025,
      "dign": 4026,
      "fil": 4027,
      "hid": 4028,
      "eros": 4029,
      "iner": 4030,
      "stones": 4031,
      "deter": 4032,
      "wives": 4033,
      "sul": 4034,
      "prov": 4035,
      "wollen": 4036,
      "agger": 4037,
      "stelle": 4038,
      "food": 4039,
      "glor": 4040,
      "jeune": 4041,
      "miser": 4042,
      "parte": 4043,
      "ieren": 4044,
      "vons": 4045,
      "acht": 4046,
      "horses": 4047,
      "vingt": 4048,
      "personen": 4049,
      "wär": 4050,
      "gaben": 4051,
      "stock": 4052,
      "colours": 4053,
      "deserve": 4054,
      "miranda": 4055,
      "rechte": 4056,
      "ächlich": 4057,
      "persön": 4058,
      "easy": 4059,
      "jahrhunderts": 4060,
      "saturninus": 4061,
      "leisure": 4062,
      "genossen": 4063,
      "stätten": 4064,
      "tybalt": 4065,
      "27": 4066,
      "88": 4067,
      "avo": 4068,
      "dung": 4069,
      "jet": 4070,
      "jess": 4071,
      "nine": 4072,
      "plot": 4073,
      "rum": 4074,
      "twill": 4075,
      "tune": 4076,
      "uer": 4077,
      "zz": 4078,
      "zip": 4079,
      "thie": 4080,
      "stär": 4081,
      "forbear": 4082,
      "rais": 4083,
      "loath": 4084,
      "conquer": 4085,
      "nap": 4086,
      "giving": 4087,
      "akter": 4088,
      "abroad": 4089,
      "lucet": 4090,
      "chez": 4091,
      "anderer": 4092,
      "konkur": 4093,
      "reasons": 4094,
      "niece": 4095,
      "cries": 4096,
      "gilt": 4097,
      "lucetta": 4098,
      "33": 4099,
      "arvi": 4100,
      "sty": 4101,
      "dehn": 4102,
      "forsworn": 4103,
      "weight": 4104,
      "always": 4105,
      "gew": 4106,
      "kehr": 4107,
      "alles": 4108,
      "ament": 4109,
      "rible": 4110,
      "faint": 4111,
      "mangel": 4112,
      "trincu": 4113,
      "existen": 4114,
      "shoul": 4115,
      "cial": 4116,
      "empf": 4117,
      "ausge": 4118,
      "pace": 4119,
      "apt": 4120,
      "setzen": 4121,
      "wench": 4122,
      "buck": 4123,
      "franzö": 4124,
      "kindern": 4125,
      "seeming": 4126,
      "supper": 4127,
      "rank": 4128,
      "ransom": 4129,
      "näher": 4130,
      "leonato": 4131,
      "länder": 4132,
      "assez": 4133,
      "hermione": 4134,
      "richtung": 4135,
      "ragus": 4136,
      "receiv": 4137,
      "circum": 4138,
      "scot": 4139,
      "journal": 4140,
      "wiesen": 4141,
      "remembrance": 4142,
      "arviragus": 4143,
      "französ": 4144,
      "bind": 4145,
      "dust": 4146,
      "evil": 4147,
      "flies": 4148,
      "pé": 4149,
      "rend": 4150,
      "istr": 4151,
      "ative": 4152,
      "leep": 4153,
      "sech": 4154,
      "whis": 4155,
      "liest": 4156,
      "doors": 4157,
      "dian": 4158,
      "despair": 4159,
      "exposition": 4160,
      "uple": 4161,
      "capu": 4162,
      "eint": 4163,
      "spite": 4164,
      "liegt": 4165,
      "disgu": 4166,
      "broken": 4167,
      "charakter": 4168,
      "garden": 4169,
      "hlen": 4170,
      "burden": 4171,
      "compass": 4172,
      "stomach": 4173,
      "holofern": 4174,
      "kleinen": 4175,
      "donc": 4176,
      "sooner": 4177,
      "fabrikation": 4178,
      "flavius": 4179,
      "wohnung": 4180,
      "statist": 4181,
      "völl": 4182,
      "punkt": 4183,
      "imagin": 4184,
      "trinculo": 4185,
      "holofernes": 4186,
      "ado": 4187,
      "fut": 4188,
      "mun": 4189,
      "ome": 4190,
      "rä": 4191,
      "skill": 4192,
      "twel": 4193,
      "rein": 4194,
      "asleep": 4195,
      "raum": 4196,
      "lovers": 4197,
      "verständ": 4198,
      "ichte": 4199,
      "convey": 4200,
      "sheep": 4201,
      "warlike": 4202,
      "spare": 4203,
      "sometimes": 4204,
      "handel": 4205,
      "tree": 4206,
      "prais": 4207,
      "portrait": 4208,
      "longa": 4209,
      "intent": 4210,
      "ctions": 4211,
      "biades": 4212,
      "droit": 4213,
      "humbly": 4214,
      "kleid": 4215,
      "fäh": 4216,
      "gründe": 4217,
      "punish": 4218,
      "counterfeit": 4219,
      "früh": 4220,
      "particular": 4221,
      "alcibiades": 4222,
      "gouvernement": 4223,
      "ball": 4224,
      "hmen": 4225,
      "izel": 4226,
      "slow": 4227,
      "erg": 4228,
      "encounter": 4229,
      "chang": 4230,
      "regel": 4231,
      "leit": 4232,
      "mel": 4233,
      "beyond": 4234,
      "seat": 4235,
      "deck": 4236,
      "gewähr": 4237,
      "loo": 4238,
      "igten": 4239,
      "doll": 4240,
      "esten": 4241,
      "hers": 4242,
      "tenance": 4243,
      "liches": 4244,
      "perate": 4245,
      "fruit": 4246,
      "abhän": 4247,
      "mayor": 4248,
      "handelt": 4249,
      "discourse": 4250,
      "ical": 4251,
      "senators": 4252,
      "standen": 4253,
      "tyrant": 4254,
      "troop": 4255,
      "trial": 4256,
      "onicus": 4257,
      "capit": 4258,
      "malcol": 4259,
      "meaning": 4260,
      "crowns": 4261,
      "beatrice": 4262,
      "swore": 4263,
      "stehenden": 4264,
      "rascal": 4265,
      "romans": 4266,
      "obedience": 4267,
      "subjects": 4268,
      "cupid": 4269,
      "solemn": 4270,
      "peutêtre": 4271,
      "florizel": 4272,
      "absence": 4273,
      "kenntnis": 4274,
      "herald": 4275,
      "pyramus": 4276,
      "longaville": 4277,
      "malcolm": 4278,
      "57": 4279,
      "hü": 4280,
      "pou": 4281,
      "sits": 4282,
      "chan": 4283,
      "stab": 4284,
      "search": 4285,
      "ieten": 4286,
      "devant": 4287,
      "assure": 4288,
      "geht": 4289,
      "loose": 4290,
      "quen": 4291,
      "schlu": 4292,
      "taking": 4293,
      "despite": 4294,
      "einmal": 4295,
      "agrip": 4296,
      "fright": 4297,
      "frauenfrage": 4298,
      "appar": 4299,
      "disdain": 4300,
      "ucht": 4301,
      "north": 4302,
      "elbow": 4303,
      "standing": 4304,
      "angel": 4305,
      "untersuch": 4306,
      "bark": 4307,
      "186": 4308,
      "buried": 4309,
      "konfe": 4310,
      "deutsche": 4311,
      "human": 4312,
      "findet": 4313,
      "powers": 4314,
      "happiness": 4315,
      "craft": 4316,
      "spoken": 4317,
      "protector": 4318,
      "fähr": 4319,
      "weeping": 4320,
      "flood": 4321,
      "gallant": 4322,
      "geschlechter": 4323,
      "setzung": 4324,
      "früher": 4325,
      "dreadful": 4326,
      "täglich": 4327,
      "storm": 4328,
      "clouds": 4329,
      "oxford": 4330,
      "remedy": 4331,
      "andronicus": 4332,
      "stanley": 4333,
      "jessica": 4334,
      "twelve": 4335,
      "agrippa": 4336,
      "89": 4337,
      "cul": 4338,
      "fits": 4339,
      "gg": 4340,
      "kult": 4341,
      "lat": 4342,
      "nought": 4343,
      "ress": 4344,
      "ense": 4345,
      "ismus": 4346,
      "chem": 4347,
      "lean": 4348,
      "depuis": 4349,
      "igne": 4350,
      "aujour": 4351,
      "rivers": 4352,
      "feet": 4353,
      "schw": 4354,
      "schar": 4355,
      "prophe": 4356,
      "shed": 4357,
      "merit": 4358,
      "saying": 4359,
      "fairy": 4360,
      "gues": 4361,
      "guest": 4362,
      "dienen": 4363,
      "bids": 4364,
      "hui": 4365,
      "single": 4366,
      "traitors": 4367,
      "suppose": 4368,
      "quality": 4369,
      "guilt": 4370,
      "reverend": 4371,
      "ambition": 4372,
      "acquaint": 4373,
      "custom": 4374,
      "memory": 4375,
      "aujourd": 4376,
      "cie": 4377,
      "dagger": 4378,
      "glichen": 4379,
      "jetz": 4380,
      "jähr": 4381,
      "lange": 4382,
      "nouve": 4383,
      "pul": 4384,
      "rou": 4385,
      "ris": 4386,
      "inner": 4387,
      "challen": 4388,
      "haft": 4389,
      "del": 4390,
      "wide": 4391,
      "vex": 4392,
      "imper": 4393,
      "dows": 4394,
      "augen": 4395,
      "schü": 4396,
      "ously": 4397,
      "peril": 4398,
      "agre": 4399,
      "davon": 4400,
      "aufsicht": 4401,
      "vered": 4402,
      "purpos": 4403,
      "ufen": 4404,
      "volks": 4405,
      "luciana": 4406,
      "sinn": 4407,
      "except": 4408,
      "griefs": 4409,
      "mira": 4410,
      "oliver": 4411,
      "betracht": 4412,
      "langu": 4413,
      "bedeutung": 4414,
      "géné": 4415,
      "horns": 4416,
      "tyrann": 4417,
      "bin": 4418,
      "furn": 4419,
      "flight": 4420,
      "glau": 4421,
      "kü": 4422,
      "pon": 4423,
      "pli": 4424,
      "pick": 4425,
      "ror": 4426,
      "sn": 4427,
      "wings": 4428,
      "äten": 4429,
      "ären": 4430,
      "öt": 4431,
      "envy": 4432,
      "enforce": 4433,
      "ane": 4434,
      "anted": 4435,
      "arme": 4436,
      "stem": 4437,
      "rebel": 4438,
      "leiden": 4439,
      "seul": 4440,
      "wixt": 4441,
      "entgegen": 4442,
      "weder": 4443,
      "sowohl": 4444,
      "teeth": 4445,
      "adam": 4446,
      "admit": 4447,
      "shore": 4448,
      "therein": 4449,
      "goodness": 4450,
      "naked": 4451,
      "gren": 4452,
      "spra": 4453,
      "parted": 4454,
      "iers": 4455,
      "liegen": 4456,
      "disposition": 4457,
      "graph": 4458,
      "breit": 4459,
      "countenance": 4460,
      "prevent": 4461,
      "betwixt": 4462,
      "trick": 4463,
      "dearest": 4464,
      "daughters": 4465,
      "minds": 4466,
      "learned": 4467,
      "mettre": 4468,
      "zahlen": 4469,
      "grande": 4470,
      "hopes": 4471,
      "thrive": 4472,
      "durst": 4473,
      "berufe": 4474,
      "kellnerinnen": 4475,
      "euro": 4476,
      "vengeance": 4477,
      "knife": 4478,
      "21": 4479,
      "79": 4480,
      "cue": 4481,
      "east": 4482,
      "fon": 4483,
      "mul": 4484,
      "ron": 4485,
      "tid": 4486,
      "vau": 4487,
      "inform": 4488,
      "anc": 4489,
      "ouv": 4490,
      "isle": 4491,
      "stag": 4492,
      "leist": 4493,
      "seite": 4494,
      "seits": 4495,
      "debt": 4496,
      "geg": 4497,
      "gelehr": 4498,
      "gower": 4499,
      "quince": 4500,
      "denied": 4501,
      "undone": 4502,
      "admir": 4503,
      "womb": 4504,
      "cave": 4505,
      "outward": 4506,
      "tive": 4507,
      "marian": 4508,
      "später": 4509,
      "plead": 4510,
      "seeing": 4511,
      "ände": 4512,
      "voices": 4513,
      "appare": 4514,
      "traur": 4515,
      "charity": 4516,
      "guess": 4517,
      "brab": 4518,
      "heavenly": 4519,
      "puck": 4520,
      "begins": 4521,
      "interesse": 4522,
      "turns": 4523,
      "drops": 4524,
      "winds": 4525,
      "freely": 4526,
      "bürgerliche": 4527,
      "berecht": 4528,
      "1891": 4529,
      "werkstätten": 4530,
      "moved": 4531,
      "million": 4532,
      "öchter": 4533,
      "britain": 4534,
      "verheirateten": 4535,
      "authority": 4536,
      "existenz": 4537,
      "78": 4538,
      "cès": 4539,
      "dir": 4540,
      "digen": 4541,
      "jun": 4542,
      "mich": 4543,
      "pound": 4544,
      "vest": 4545,
      "ähn": 4546,
      "stam": 4547,
      "below": 4548,
      "male": 4549,
      "urteil": 4550,
      "tez": 4551,
      "goth": 4552,
      "thisby": 4553,
      "ified": 4554,
      "desc": 4555,
      "desperate": 4556,
      "glas": 4557,
      "sucht": 4558,
      "ierten": 4559,
      "treasure": 4560,
      "petit": 4561,
      "freien": 4562,
      "armour": 4563,
      "puiss": 4564,
      "autres": 4565,
      "ruhe": 4566,
      "bride": 4567,
      "arbeitskraft": 4568,
      "zwang": 4569,
      "sickness": 4570,
      "hunger": 4571,
      "empty": 4572,
      "regard": 4573,
      "mieux": 4574,
      "vouchsafe": 4575,
      "satisfied": 4576,
      "slaughter": 4577,
      "55": 4578,
      "bure": 4579,
      "dort": 4580,
      "gere": 4581,
      "ming": 4582,
      "swell": 4583,
      "vinc": 4584,
      "wart": 4585,
      "thir": 4586,
      "chose": 4587,
      "ating": 4588,
      "atta": 4589,
      "whore": 4590,
      "alon": 4591,
      "gehör": 4592,
      "mau": 4593,
      "maine": 4594,
      "teils": 4595,
      "neue": 4596,
      "ripe": 4597,
      "faces": 4598,
      "fected": 4599,
      "willing": 4600,
      "super": 4601,
      "boden": 4602,
      "sais": 4603,
      "sachen": 4604,
      "menas": 4605,
      "herein": 4606,
      "brand": 4607,
      "brings": 4608,
      "lovely": 4609,
      "spekt": 4610,
      "mitglieder": 4611,
      "assist": 4612,
      "appre": 4613,
      "disgrace": 4614,
      "graces": 4615,
      "voraus": 4616,
      "porte": 4617,
      "fortun": 4618,
      "puts": 4619,
      "waste": 4620,
      "renz": 4621,
      "render": 4622,
      "geschlossen": 4623,
      "rule": 4624,
      "ferdin": 4625,
      "observ": 4626,
      "meeting": 4627,
      "maintain": 4628,
      "painted": 4629,
      "nahm": 4630,
      "vielmehr": 4631,
      "flower": 4632,
      "mirth": 4633,
      "möglichkeit": 4634,
      "freiheit": 4635,
      "sollte": 4636,
      "bility": 4637,
      "conclu": 4638,
      "ignorant": 4639,
      "photo": 4640,
      "ducats": 4641,
      "lorsqu": 4642,
      "corrupt": 4643,
      "realm": 4644,
      "konkurrenz": 4645,
      "ferdinand": 4646,
      "eux": 4647,
      "honey": 4648,
      "mand": 4649,
      "ots": 4650,
      "pill": 4651,
      "sung": 4652,
      "shot": 4653,
      "vul": 4654,
      "étu": 4655,
      "chiron": 4656,
      "lev": 4657,
      "haut": 4658,
      "usion": 4659,
      "soweit": 4660,
      "ichter": 4661,
      "etc": 4662,
      "etern": 4663,
      "divine": 4664,
      "advis": 4665,
      "confer": 4666,
      "prise": 4667,
      "bleiben": 4668,
      "vious": 4669,
      "abus": 4670,
      "greif": 4671,
      "treach": 4672,
      "oppos": 4673,
      "unterdrück": 4674,
      "wahr": 4675,
      "following": 4676,
      "politi": 4677,
      "cliff": 4678,
      "1895": 4679,
      "lehrerinnen": 4680,
      "burning": 4681,
      "proletarischen": 4682,
      "toujours": 4683,
      "tempest": 4684,
      "devise": 4685,
      "followers": 4686,
      "violent": 4687,
      "verschieden": 4688,
      "gesellschaft": 4689,
      "jetzt": 4690,
      "tidings": 4691,
      "44": 4692,
      "66": 4693,
      "av": 4694,
      "aire": 4695,
      "bought": 4696,
      "cere": 4697,
      "dim": 4698,
      "fern": 4699,
      "gten": 4700,
      "kis": 4701,
      "kap": 4702,
      "pent": 4703,
      "sink": 4704,
      "vu": 4705,
      "zard": 4706,
      "ître": 4707,
      "infin": 4708,
      "stück": 4709,
      "haps": 4710,
      "robert": 4711,
      "cease": 4712,
      "forces": 4713,
      "madame": 4714,
      "tedious": 4715,
      "losen": 4716,
      "kel": 4717,
      "quis": 4718,
      "peint": 4719,
      "sult": 4720,
      "confirm": 4721,
      "artiste": 4722,
      "boot": 4723,
      "cian": 4724,
      "mars": 4725,
      "monument": 4726,
      "bade": 4727,
      "bred": 4728,
      "greatest": 4729,
      "council": 4730,
      "bler": 4731,
      "party": 4732,
      "intér": 4733,
      "earnest": 4734,
      "bestre": 4735,
      "tribut": 4736,
      "preser": 4737,
      "begg": 4738,
      "deadly": 4739,
      "bringen": 4740,
      "doub": 4741,
      "musici": 4742,
      "pense": 4743,
      "attendant": 4744,
      "solche": 4745,
      "bourge": 4746,
      "knees": 4747,
      "pays": 4748,
      "fourth": 4749,
      "proletarier": 4750,
      "zweife": 4751,
      "einge": 4752,
      "zuste": 4753,
      "wissenschaft": 4754,
      "throat": 4755,
      "tailor": 4756,
      "état": 4757,
      "girl": 4758,
      "philoso": 4759,
      "condemn": 4760,
      "brabant": 4761,
      "avant": 4762,
      "gab": 4763,
      "hinter": 4764,
      "kte": 4765,
      "pause": 4766,
      "taught": 4767,
      "vish": 4768,
      "étr": 4769,
      "thé": 4770,
      "thick": 4771,
      "erfol": 4772,
      "anfang": 4773,
      "chair": 4774,
      "ario": 4775,
      "arded": 4776,
      "start": 4777,
      "stün": 4778,
      "rei": 4779,
      "repair": 4780,
      "toil": 4781,
      "meister": 4782,
      "seest": 4783,
      "dew": 4784,
      "cept": 4785,
      "entio": 4786,
      "ram": 4787,
      "gebra": 4788,
      "verfü": 4789,
      "ters": 4790,
      "hollow": 4791,
      "estate": 4792,
      "heraus": 4793,
      "tabelle": 4794,
      "contempt": 4795,
      "uments": 4796,
      "mort": 4797,
      "genommen": 4798,
      "sides": 4799,
      "agent": 4800,
      "knowing": 4801,
      "mischief": 4802,
      "breed": 4803,
      "fathers": 4804,
      "bett": 4805,
      "priam": 4806,
      "result": 4807,
      "accuse": 4808,
      "early": 4809,
      "bedford": 4810,
      "cursed": 4811,
      "ernähr": 4812,
      "surrey": 4813,
      "isons": 4814,
      "konnten": 4815,
      "object": 4816,
      "salt": 4817,
      "vision": 4818,
      "beaten": 4819,
      "staats": 4820,
      "crack": 4821,
      "appears": 4822,
      "streets": 4823,
      "1890": 4824,
      "constance": 4825,
      "immt": 4826,
      "männliche": 4827,
      "betrieben": 4828,
      "alters": 4829,
      "suddenly": 4830,
      "sighs": 4831,
      "notwendig": 4832,
      "modesty": 4833,
      "smooth": 4834,
      "alencon": 4835,
      "einzelnen": 4836,
      "dishonour": 4837,
      "kinsman": 4838,
      "intellig": 4839,
      "alonso": 4840,
      "bourgeois": 4841,
      "90": 4842,
      "eag": 4843,
      "hip": 4844,
      "jure": 4845,
      "purch": 4846,
      "uhr": 4847,
      "vres": 4848,
      "vér": 4849,
      "zent": 4850,
      "zvous": 4851,
      "ères": 4852,
      "thorn": 4853,
      "erio": 4854,
      "erhalten": 4855,
      "chide": 4856,
      "regi": 4857,
      "noon": 4858,
      "seas": 4859,
      "deb": 4860,
      "whores": 4861,
      "entwicke": 4862,
      "rail": 4863,
      "thats": 4864,
      "soci": 4865,
      "cox": 4866,
      "lagen": 4867,
      "lodo": 4868,
      "vert": 4869,
      "aug": 4870,
      "prü": 4871,
      "comment": 4872,
      "perchance": 4873,
      "steward": 4874,
      "spake": 4875,
      "ables": 4876,
      "jeunes": 4877,
      "luck": 4878,
      "ierung": 4879,
      "discover": 4880,
      "prevail": 4881,
      "acci": 4882,
      "clam": 4883,
      "sore": 4884,
      "groom": 4885,
      "stoop": 4886,
      "sleeping": 4887,
      "window": 4888,
      "danken": 4889,
      "virtues": 4890,
      "forderungen": 4891,
      "chaste": 4892,
      "tarry": 4893,
      "reignier": 4894,
      "fiery": 4895,
      "conduct": 4896,
      "durchschnitt": 4897,
      "egypt": 4898,
      "circumst": 4899,
      "kleidung": 4900,
      "vincentio": 4901,
      "300": 4902,
      "cand": 4903,
      "image": 4904,
      "jus": 4905,
      "pad": 4906,
      "rit": 4907,
      "töchter": 4908,
      "wink": 4909,
      "wont": 4910,
      "ôt": 4911,
      "thrown": 4912,
      "inking": 4913,
      "delay": 4914,
      "forsooth": 4915,
      "enton": 4916,
      "entsch": 4917,
      "wege": 4918,
      "geon": 4919,
      "maire": 4920,
      "impossible": 4921,
      "dogs": 4922,
      "ambass": 4923,
      "fem": 4924,
      "contem": 4925,
      "comfor": 4926,
      "commen": 4927,
      "proport": 4928,
      "perfection": 4929,
      "sait": 4930,
      "capa": 4931,
      "zuerst": 4932,
      "bled": 4933,
      "genau": 4934,
      "genann": 4935,
      "hereafter": 4936,
      "empress": 4937,
      "sonn": 4938,
      "spiel": 4939,
      "speaking": 4940,
      "abuse": 4941,
      "brows": 4942,
      "corre": 4943,
      "fortschritt": 4944,
      "garments": 4945,
      "account": 4946,
      "fallen": 4947,
      "pourquoi": 4948,
      "dares": 4949,
      "darauf": 4950,
      "draws": 4951,
      "cler": 4952,
      "affli": 4953,
      "hören": 4954,
      "salerio": 4955,
      "strikes": 4956,
      "strain": 4957,
      "klassen": 4958,
      "bonne": 4959,
      "maids": 4960,
      "mußte": 4961,
      "seinem": 4962,
      "geistigen": 4963,
      "gifts": 4964,
      "destin": 4965,
      "millions": 4966,
      "concern": 4967,
      "bestehen": 4968,
      "thinking": 4969,
      "berliner": 4970,
      "names": 4971,
      "pronoun": 4972,
      "dumb": 4973,
      "thieves": 4974,
      "schluß": 4975,
      "challenge": 4976,
      "furnish": 4977,
      "mariana": 4978,
      "ceremon": 4979,
      "ambassad": 4980,
      "250": 4981,
      "53": 4982,
      "equal": 4983,
      "gal": 4984,
      "iest": 4985,
      "lè": 4986,
      "las": 4987,
      "mild": 4988,
      "rue": 4989,
      "rhy": 4990,
      "sä": 4991,
      "south": 4992,
      "ua": 4993,
      "xion": 4994,
      "zimmer": 4995,
      "ème": 4996,
      "écri": 4997,
      "êt": 4998,
      "tho": 4999,
      "enne": 5000,
      "inher": 5001,
      "onius": 5002,
      "chter": 5003,
      "atio": 5004,
      "ität": 5005,
      "itude": 5006,
      "reform": 5007,
      "rebell": 5008,
      "reputation": 5009,
      "degree": 5010,
      "ingen": 5011,
      "lig": 5012,
      "raise": 5013,
      "teous": 5014,
      "cool": 5015,
      "lais": 5016,
      "verdienst": 5017,
      "ilà": 5018,
      "ility": 5019,
      "pot": 5020,
      "prend": 5021,
      "illon": 5022,
      "perforce": 5023,
      "selbe": 5024,
      "sach": 5025,
      "sacred": 5026,
      "vient": 5027,
      "sire": 5028,
      "serait": 5029,
      "dying": 5030,
      "prefer": 5031,
      "prick": 5032,
      "prize": 5033,
      "horatio": 5034,
      "kennen": 5035,
      "mater": 5036,
      "begriff": 5037,
      "häl": 5038,
      "minist": 5039,
      "seinen": 5040,
      "titan": 5041,
      "villains": 5042,
      "mütter": 5043,
      "zwungen": 5044,
      "diesel": 5045,
      "fabriken": 5046,
      "sounds": 5047,
      "hinaus": 5048,
      "présent": 5049,
      "flowers": 5050,
      "bassi": 5051,
      "blessing": 5052,
      "thätig": 5053,
      "phebe": 5054,
      "erwerb": 5055,
      "messala": 5056,
      "familiar": 5057,
      "häuslichen": 5058,
      "pinch": 5059,
      "laertes": 5060,
      "besteht": 5061,
      "limbs": 5062,
      "octavius": 5063,
      "schriften": 5064,
      "victory": 5065,
      "höheren": 5066,
      "contrary": 5067,
      "letzten": 5068,
      "statistik": 5069,
      "bay": 5070,
      "buch": 5071,
      "fenton": 5072,
      "gla": 5073,
      "sway": 5074,
      "slight": 5075,
      "zü": 5076,
      "erhe": 5077,
      "ani": 5078,
      "anten": 5079,
      "ony": 5080,
      "atures": 5081,
      "leute": 5082,
      "beut": 5083,
      "behalf": 5084,
      "unser": 5085,
      "nobles": 5086,
      "sees": 5087,
      "dec": 5088,
      "wier": 5089,
      "asp": 5090,
      "asy": 5091,
      "root": 5092,
      "forc": 5093,
      "liers": 5094,
      "entliche": 5095,
      "geber": 5096,
      "laws": 5097,
      "diejenigen": 5098,
      "quant": 5099,
      "conven": 5100,
      "perio": 5101,
      "oles": 5102,
      "frame": 5103,
      "davy": 5104,
      "parle": 5105,
      "scro": 5106,
      "monde": 5107,
      "tragen": 5108,
      "tread": 5109,
      "fairly": 5110,
      "ports": 5111,
      "privile": 5112,
      "ibt": 5113,
      "fret": 5114,
      "undertake": 5115,
      "native": 5116,
      "talent": 5117,
      "schafts": 5118,
      "daran": 5119,
      "daraus": 5120,
      "groan": 5121,
      "interessen": 5122,
      "klar": 5123,
      "studi": 5124,
      "leng": 5125,
      "könnte": 5126,
      "miß": 5127,
      "rechts": 5128,
      "ratcliff": 5129,
      "hommes": 5130,
      "policy": 5131,
      "jener": 5132,
      "shortly": 5133,
      "fatal": 5134,
      "suspect": 5135,
      "religi": 5136,
      "attended": 5137,
      "instrument": 5138,
      "gefühl": 5139,
      "fähigkeit": 5140,
      "photograph": 5141,
      "kisses": 5142,
      "brabantio": 5143,
      "47": 5144,
      "avons": 5145,
      "bent": 5146,
      "crom": 5147,
      "event": 5148,
      "gor": 5149,
      "gun": 5150,
      "ives": 5151,
      "lassung": 5152,
      "pan": 5153,
      "swall": 5154,
      "uen": 5155,
      "wl": 5156,
      "ît": 5157,
      "injur": 5158,
      "isp": 5159,
      "token": 5160,
      "haply": 5161,
      "deceive": 5162,
      "rock": 5163,
      "whit": 5164,
      "cela": 5165,
      "raven": 5166,
      "gef": 5167,
      "gefähr": 5168,
      "key": 5169,
      "dower": 5170,
      "verg": 5171,
      "negle": 5172,
      "hoch": 5173,
      "ria": 5174,
      "pein": 5175,
      "fed": 5176,
      "edge": 5177,
      "berü": 5178,
      "artistes": 5179,
      "prodig": 5180,
      "perhaps": 5181,
      "agents": 5182,
      "ausdruck": 5183,
      "scur": 5184,
      "plais": 5185,
      "tells": 5186,
      "charg": 5187,
      "corin": 5188,
      "brains": 5189,
      "ladyship": 5190,
      "distra": 5191,
      "dieses": 5192,
      "cents": 5193,
      "losigkeit": 5194,
      "calf": 5195,
      "damned": 5196,
      "gesetzt": 5197,
      "painter": 5198,
      "klein": 5199,
      "hinder": 5200,
      "dreams": 5201,
      "betriebe": 5202,
      "heimarbeit": 5203,
      "maße": 5204,
      "politischen": 5205,
      "infolgedessen": 5206,
      "oberon": 5207,
      "octavia": 5208,
      "schrift": 5209,
      "according": 5210,
      "capulet": 5211,
      "abhäng": 5212,
      "konfektion": 5213,
      "bassianus": 5214,
      "58": 5215,
      "bag": 5216,
      "bite": 5217,
      "fate": 5218,
      "knot": 5219,
      "mm": 5220,
      "mong": 5221,
      "tzen": 5222,
      "espr": 5223,
      "store": 5224,
      "requ": 5225,
      "leap": 5226,
      "unknown": 5227,
      "weeds": 5228,
      "utes": 5229,
      "thatsache": 5230,
      "quet": 5231,
      "amis": 5232,
      "pel": 5233,
      "pear": 5234,
      "dence": 5235,
      "fav": 5236,
      "suck": 5237,
      "prolo": 5238,
      "exper": 5239,
      "perdit": 5240,
      "shire": 5241,
      "bodies": 5242,
      "vico": 5243,
      "venir": 5244,
      "gesicht": 5245,
      "spre": 5246,
      "sicher": 5247,
      "score": 5248,
      "lieu": 5249,
      "elend": 5250,
      "sweat": 5251,
      "yeux": 5252,
      "blown": 5253,
      "drän": 5254,
      "prey": 5255,
      "friendship": 5256,
      "courtier": 5257,
      "vais": 5258,
      "besten": 5259,
      "helfen": 5260,
      "patri": 5261,
      "curs": 5262,
      "minute": 5263,
      "itious": 5264,
      "silvius": 5265,
      "walt": 5266,
      "belly": 5267,
      "spot": 5268,
      "runs": 5269,
      "knaves": 5270,
      "stream": 5271,
      "prisoners": 5272,
      "desert": 5273,
      "picture": 5274,
      "offended": 5275,
      "soothsay": 5276,
      "angestellte": 5277,
      "reverence": 5278,
      "semble": 5279,
      "esteem": 5280,
      "advance": 5281,
      "smiles": 5282,
      "bedürfnis": 5283,
      "bewuß": 5284,
      "services": 5285,
      "natürlich": 5286,
      "müßte": 5287,
      "lodovico": 5288,
      "cromwell": 5289,
      "aise": 5290,
      "cass": 5291,
      "hé": 5292,
      "iance": 5293,
      "kür": 5294,
      "nice": 5295,
      "tum": 5296,
      "zung": 5297,
      "zün": 5298,
      "übr": 5299,
      "inte": 5300,
      "island": 5301,
      "arr": 5302,
      "arrow": 5303,
      "stage": 5304,
      "melt": 5305,
      "methought": 5306,
      "belong": 5307,
      "device": 5308,
      "lip": 5309,
      "entr": 5310,
      "wet": 5311,
      "iras": 5312,
      "erem": 5313,
      "soli": 5314,
      "etwas": 5315,
      "quand": 5316,
      "hercu": 5317,
      "advice": 5318,
      "odds": 5319,
      "poly": 5320,
      "trat": 5321,
      "schwier": 5322,
      "contro": 5323,
      "boast": 5324,
      "zugleich": 5325,
      "zuführen": 5326,
      "einnahmen": 5327,
      "worn": 5328,
      "canter": 5329,
      "gesund": 5330,
      "gling": 5331,
      "absent": 5332,
      "zeu": 5333,
      "zeug": 5334,
      "ierte": 5335,
      "vos": 5336,
      "voilà": 5337,
      "apart": 5338,
      "dasselbe": 5339,
      "grap": 5340,
      "brot": 5341,
      "elder": 5342,
      "unehmen": 5343,
      "incre": 5344,
      "resp": 5345,
      "barbar": 5346,
      "barren": 5347,
      "wrought": 5348,
      "welche": 5349,
      "build": 5350,
      "carried": 5351,
      "zeiten": 5352,
      "weiblicher": 5353,
      "obwohl": 5354,
      "machte": 5355,
      "salon": 5356,
      "farther": 5357,
      "attending": 5358,
      "sleeps": 5359,
      "crave": 5360,
      "nieder": 5361,
      "contented": 5362,
      "zusch": 5363,
      "sky": 5364,
      "würden": 5365,
      "pitch": 5366,
      "keiner": 5367,
      "fingers": 5368,
      "conceit": 5369,
      "midnight": 5370,
      "mourn": 5371,
      "ignorance": 5372,
      "numbers": 5373,
      "acquainted": 5374,
      "directly": 5375,
      "cuckold": 5376,
      "looking": 5377,
      "capitol": 5378,
      "infinite": 5379,
      "thatsächlich": 5380,
      "hälfte": 5381,
      "soothsayer": 5382,
      "46": 5383,
      "400": 5384,
      "alike": 5385,
      "bund": 5386,
      "balth": 5387,
      "glo": 5388,
      "gage": 5389,
      "lf": 5390,
      "lungs": 5391,
      "nungen": 5392,
      "pil": 5393,
      "sly": 5394,
      "scep": 5395,
      "wreck": 5396,
      "wounded": 5397,
      "ziel": 5398,
      "éle": 5399,
      "erer": 5400,
      "aner": 5401,
      "orch": 5402,
      "stets": 5403,
      "retire": 5404,
      "belike": 5405,
      "beaux": 5406,
      "bezeich": 5407,
      "limit": 5408,
      "gezwungen": 5409,
      "iges": 5410,
      "très": 5411,
      "woes": 5412,
      "mene": 5413,
      "einnahme": 5414,
      "sirs": 5415,
      "nahrung": 5416,
      "affect": 5417,
      "bru": 5418,
      "front": 5419,
      "step": 5420,
      "greek": 5421,
      "suchen": 5422,
      "liebe": 5423,
      "bawd": 5424,
      "honne": 5425,
      "senate": 5426,
      "corpor": 5427,
      "fairest": 5428,
      "garter": 5429,
      "accept": 5430,
      "unterricht": 5431,
      "sions": 5432,
      "finds": 5433,
      "dearly": 5434,
      "everything": 5435,
      "gabe": 5436,
      "virgi": 5437,
      "hugh": 5438,
      "penny": 5439,
      "calm": 5440,
      "hanging": 5441,
      "textil": 5442,
      "milan": 5443,
      "gemein": 5444,
      "deserv": 5445,
      "sorrows": 5446,
      "tableaux": 5447,
      "käuf": 5448,
      "drums": 5449,
      "revolt": 5450,
      "kost": 5451,
      "deceiv": 5452,
      "heureux": 5453,
      "practice": 5454,
      "bounty": 5455,
      "weapons": 5456,
      "sklaven": 5457,
      "unterstützung": 5458,
      "glorious": 5459,
      "whisper": 5460,
      "disguis": 5461,
      "padua": 5462,
      "periode": 5463,
      "perdita": 5464,
      "56": 5465,
      "cles": 5466,
      "dings": 5467,
      "eur": 5468,
      "hend": 5469,
      "lart": 5470,
      "mass": 5471,
      "mbroke": 5472,
      "pup": 5473,
      "snow": 5474,
      "tall": 5475,
      "ught": 5476,
      "êtes": 5477,
      "chast": 5478,
      "ller": 5479,
      "relie": 5480,
      "unbe": 5481,
      "hall": 5482,
      "hazard": 5483,
      "forfeit": 5484,
      "raid": 5485,
      "alte": 5486,
      "gehil": 5487,
      "lam": 5488,
      "imême": 5489,
      "dola": 5490,
      "verdienen": 5491,
      "nephe": 5492,
      "rier": 5493,
      "peur": 5494,
      "pembroke": 5495,
      "willingly": 5496,
      "add": 5497,
      "anti": 5498,
      "schwe": 5499,
      "constru": 5500,
      "moe": 5501,
      "desir": 5502,
      "shout": 5503,
      "sacri": 5504,
      "worm": 5505,
      "afraid": 5506,
      "mary": 5507,
      "lovell": 5508,
      "ateur": 5509,
      "special": 5510,
      "mistake": 5511,
      "check": 5512,
      "handker": 5513,
      "places": 5514,
      "approve": 5515,
      "displeasure": 5516,
      "standpunkt": 5517,
      "angle": 5518,
      "premi": 5519,
      "fairies": 5520,
      "plan": 5521,
      "untersch": 5522,
      "cours": 5523,
      "frem": 5524,
      "englischen": 5525,
      "welsh": 5526,
      "dramat": 5527,
      "hät": 5528,
      "kindly": 5529,
      "douglas": 5530,
      "gaz": 5531,
      "gaoler": 5532,
      "höhere": 5533,
      "arbeiterinnenbewegung": 5534,
      "mask": 5535,
      "zwanz": 5536,
      "grands": 5537,
      "complexion": 5538,
      "fähig": 5539,
      "fällt": 5540,
      "countrymen": 5541,
      "wirtschaftlichen": 5542,
      "ständig": 5543,
      "gründung": 5544,
      "zählt": 5545,
      "mount": 5546,
      "robin": 5547,
      "murtherer": 5548,
      "affections": 5549,
      "cinq": 5550,
      "spitzen": 5551,
      "1882": 5552,
      "fierce": 5553,
      "gewerkschaften": 5554,
      "stroke": 5555,
      "pointed": 5556,
      "substance": 5557,
      "servingman": 5558,
      "clothes": 5559,
      "bourgeoisie": 5560,
      "titania": 5561,
      "favours": 5562,
      "prologue": 5563,
      "canterbury": 5564,
      "lartius": 5565,
      "37": 5566,
      "eight": 5567,
      "gli": 5568,
      "jene": 5569,
      "kung": 5570,
      "pic": 5571,
      "rus": 5572,
      "rig": 5573,
      "ud": 5574,
      "wants": 5575,
      "zte": 5576,
      "zig": 5577,
      "engen": 5578,
      "arise": 5579,
      "stad": 5580,
      "repro": 5581,
      "nobly": 5582,
      "secre": 5583,
      "wil": 5584,
      "hei": 5585,
      "wholes": 5586,
      "gefahr": 5587,
      "coat": 5588,
      "lod": 5589,
      "quence": 5590,
      "peers": 5591,
      "felt": 5592,
      "admi": 5593,
      "tame": 5594,
      "illust": 5595,
      "mois": 5596,
      "expos": 5597,
      "einkommen": 5598,
      "nacht": 5599,
      "hereford": 5600,
      "sera": 5601,
      "fox": 5602,
      "aufge": 5603,
      "scul": 5604,
      "trade": 5605,
      "treff": 5606,
      "joint": 5607,
      "ullus": 5608,
      "décor": 5609,
      "sentence": 5610,
      "pursu": 5611,
      "henceforth": 5612,
      "visage": 5613,
      "villainy": 5614,
      "gebiet": 5615,
      "sends": 5616,
      "commanded": 5617,
      "werkstatt": 5618,
      "princi": 5619,
      "wirtschaftliche": 5620,
      "pieces": 5621,
      "allgemeine": 5622,
      "banishment": 5623,
      "grieve": 5624,
      "liberal": 5625,
      "sozialen": 5626,
      "beaucoup": 5627,
      "devils": 5628,
      "cinna": 5629,
      "duncan": 5630,
      "physici": 5631,
      "followed": 5632,
      "erreicht": 5633,
      "absolute": 5634,
      "rotten": 5635,
      "avoid": 5636,
      "purposes": 5637,
      "apparel": 5638,
      "zustellen": 5639,
      "whoreson": 5640,
      "jusqu": 5641,
      "length": 5642,
      "honneur": 5643,
      "ely": 5644,
      "eous": 5645,
      "gam": 5646,
      "gion": 5647,
      "jup": 5648,
      "nimmt": 5649,
      "oke": 5650,
      "rö": 5651,
      "rhe": 5652,
      "rul": 5653,
      "vig": 5654,
      "xe": 5655,
      "erfü": 5656,
      "ended": 5657,
      "esp": 5658,
      "arra": 5659,
      "sting": 5660,
      "stretch": 5661,
      "rejo": 5662,
      "recover": 5663,
      "remains": 5664,
      "unhappy": 5665,
      "unnatural": 5666,
      "deer": 5667,
      "aspect": 5668,
      "wears": 5669,
      "webere": 5670,
      "gewis": 5671,
      "log": 5672,
      "quent": 5673,
      "dick": 5674,
      "feather": 5675,
      "adventure": 5676,
      "potent": 5677,
      "schen": 5678,
      "shif": 5679,
      "morn": 5680,
      "seless": 5681,
      "thereof": 5682,
      "gesinde": 5683,
      "misery": 5684,
      "pawn": 5685,
      "monarch": 5686,
      "travail": 5687,
      "babe": 5688,
      "ners": 5689,
      "phra": 5690,
      "vorbereit": 5691,
      "lleicht": 5692,
      "reading": 5693,
      "nights": 5694,
      "vait": 5695,
      "cré": 5696,
      "geschie": 5697,
      "rug": 5698,
      "benefit": 5699,
      "surely": 5700,
      "confound": 5701,
      "creep": 5702,
      "visible": 5703,
      "beauteous": 5704,
      "windsor": 5705,
      "vielleicht": 5706,
      "étaient": 5707,
      "langen": 5708,
      "hardly": 5709,
      "simp": 5710,
      "hateful": 5711,
      "wesentlich": 5712,
      "1000": 5713,
      "mountain": 5714,
      "books": 5715,
      "erschein": 5716,
      "varro": 5717,
      "darkness": 5718,
      "zweck": 5719,
      "advise": 5720,
      "usurp": 5721,
      "einzige": 5722,
      "redeem": 5723,
      "sanct": 5724,
      "companion": 5725,
      "leistungen": 5726,
      "eternal": 5727,
      "sprechen": 5728,
      "bewußt": 5729,
      "dolabella": 5730,
      "wholesome": 5731,
      "jupiter": 5732,
      "aur": 5733,
      "aine": 5734,
      "ache": 5735,
      "bte": 5736,
      "bak": 5737,
      "bungen": 5738,
      "cation": 5739,
      "dst": 5740,
      "edi": 5741,
      "för": 5742,
      "kar": 5743,
      "kir": 5744,
      "kten": 5745,
      "lent": 5746,
      "nent": 5747,
      "naught": 5748,
      "twain": 5749,
      "ergeb": 5750,
      "ank": 5751,
      "anst": 5752,
      "anzu": 5753,
      "anmer": 5754,
      "legen": 5755,
      "unzu": 5756,
      "ieurs": 5757,
      "decl": 5758,
      "ingrat": 5759,
      "weather": 5760,
      "irgend": 5761,
      "urge": 5762,
      "soit": 5763,
      "coin": 5764,
      "lamb": 5765,
      "wither": 5766,
      "verkäuf": 5767,
      "terrible": 5768,
      "peas": 5769,
      "peuple": 5770,
      "fehlt": 5771,
      "ordin": 5772,
      "ordnung": 5773,
      "subt": 5774,
      "tags": 5775,
      "consul": 5776,
      "prä": 5777,
      "illy": 5778,
      "market": 5779,
      "bras": 5780,
      "frs": 5781,
      "serves": 5782,
      "abnahme": 5783,
      "jeden": 5784,
      "ausbildung": 5785,
      "park": 5786,
      "scr": 5787,
      "papier": 5788,
      "appetite": 5789,
      "treat": 5790,
      "senior": 5791,
      "fairer": 5792,
      "guild": 5793,
      "friendly": 5794,
      "yester": 5795,
      "prayer": 5796,
      "passage": 5797,
      "criti": 5798,
      "bud": 5799,
      "temple": 5800,
      "afterwards": 5801,
      "threat": 5802,
      "slew": 5803,
      "höhe": 5804,
      "observe": 5805,
      "creatures": 5806,
      "drew": 5807,
      "klasse": 5808,
      "versam": 5809,
      "solchen": 5810,
      "pomp": 5811,
      "osw": 5812,
      "stronger": 5813,
      "donner": 5814,
      "deserves": 5815,
      "avais": 5816,
      "mannes": 5817,
      "betrieb": 5818,
      "wendung": 5819,
      "bestimmte": 5820,
      "destroy": 5821,
      "torment": 5822,
      "satisfaction": 5823,
      "athenian": 5824,
      "months": 5825,
      "universitäten": 5826,
      "scape": 5827,
      "cteur": 5828,
      "descend": 5829,
      "proportion": 5830,
      "inherit": 5831,
      "virgilia": 5832,
      "zwanzig": 5833,
      "phrase": 5834,
      "43": 5835,
      "99": 5836,
      "aded": 5837,
      "dont": 5838,
      "eff": 5839,
      "fé": 5840,
      "gri": 5841,
      "gast": 5842,
      "gliche": 5843,
      "nut": 5844,
      "pate": 5845,
      "sought": 5846,
      "chin": 5847,
      "chase": 5848,
      "andre": 5849,
      "begot": 5850,
      "nobility": 5851,
      "secure": 5852,
      "seule": 5853,
      "decre": 5854,
      "assu": 5855,
      "gewesen": 5856,
      "teili": 5857,
      "coz": 5858,
      "laus": 5859,
      "withdraw": 5860,
      "verona": 5861,
      "audience": 5862,
      "amiss": 5863,
      "estil": 5864,
      "tenden": 5865,
      "adé": 5866,
      "odd": 5867,
      "edgar": 5868,
      "schule": 5869,
      "conclus": 5870,
      "prendre": 5871,
      "hrt": 5872,
      "exem": 5873,
      "perish": 5874,
      "bleed": 5875,
      "ainsi": 5876,
      "nathan": 5877,
      "marks": 5878,
      "abide": 5879,
      "ausdehn": 5880,
      "pack": 5881,
      "änder": 5882,
      "lied": 5883,
      "otherwise": 5884,
      "grav": 5885,
      "breach": 5886,
      "heartily": 5887,
      "phys": 5888,
      "angels": 5889,
      "prix": 5890,
      "inclin": 5891,
      "began": 5892,
      "vereins": 5893,
      "bora": 5894,
      "borrow": 5895,
      "commod": 5896,
      "banished": 5897,
      "slept": 5898,
      "stays": 5899,
      "titinius": 5900,
      "silent": 5901,
      "passing": 5902,
      "pleasant": 5903,
      "pleasures": 5904,
      "huge": 5905,
      "hangs": 5906,
      "stellte": 5907,
      "leness": 5908,
      "milk": 5909,
      "pression": 5910,
      "hinzu": 5911,
      "ließen": 5912,
      "rash": 5913,
      "pauvre": 5914,
      "defence": 5915,
      "betriebs": 5916,
      "feeling": 5917,
      "folgende": 5918,
      "smith": 5919,
      "maßen": 5920,
      "pedant": 5921,
      "amongst": 5922,
      "possession": 5923,
      "ambitious": 5924,
      "religion": 5925,
      "entertainment": 5926,
      "feeble": 5927,
      "fanden": 5928,
      "necessity": 5929,
      "tremble": 5930,
      "höchsten": 5931,
      "shrewd": 5932,
      "knit": 5933,
      "difference": 5934,
      "kunst": 5935,
      "dignity": 5936,
      "völlig": 5937,
      "language": 5938,
      "peinture": 5939,
      "hercules": 5940,
      "première": 5941,
      "nathaniel": 5942,
      "600": 5943,
      "bab": 5944,
      "cise": 5945,
      "dh": 5946,
      "ez": 5947,
      "elles": 5948,
      "glove": 5949,
      "mate": 5950,
      "mile": 5951,
      "nard": 5952,
      "sins": 5953,
      "yoke": 5954,
      "äts": 5955,
      "ément": 5956,
      "écr": 5957,
      "envoy": 5958,
      "choler": 5959,
      "armed": 5960,
      "andra": 5961,
      "attempt": 5962,
      "reward": 5963,
      "league": 5964,
      "unworthy": 5965,
      "unfold": 5966,
      "demo": 5967,
      "deput": 5968,
      "height": 5969,
      "liqu": 5970,
      "immedi": 5971,
      "verboten": 5972,
      "icher": 5973,
      "gob": 5974,
      "quin": 5975,
      "pected": 5976,
      "fais": 5977,
      "addition": 5978,
      "poser": 5979,
      "scheint": 5980,
      "contri": 5981,
      "conspir": 5982,
      "conserv": 5983,
      "complain": 5984,
      "mode": 5985,
      "zulassung": 5986,
      "siege": 5987,
      "geset": 5988,
      "stead": 5989,
      "luft": 5990,
      "ausschließlich": 5991,
      "vessel": 5992,
      "handwer": 5993,
      "discret": 5994,
      "lande": 5995,
      "traits": 5996,
      "achie": 5997,
      "prak": 5998,
      "senses": 5999,
      "charac": 6000,
      "durchaus": 6001,
      "cranmer": 6002,
      "wax": 6003,
      "wail": 6004,
      "personae": 6005,
      "geschä": 6006,
      "geschichte": 6007,
      "wäsche": 6008,
      "groans": 6009,
      "cares": 6010,
      "slee": 6011,
      "doute": 6012,
      "plays": 6013,
      "slaves": 6014,
      "beweis": 6015,
      "stellt": 6016,
      "masse": 6017,
      "polonius": 6018,
      "diomed": 6019,
      "kannt": 6020,
      "mutin": 6021,
      "knaben": 6022,
      "contents": 6023,
      "kamen": 6024,
      "kammer": 6025,
      "reveng": 6026,
      "mußten": 6027,
      "bravely": 6028,
      "mouths": 6029,
      "shoot": 6030,
      "forderung": 6031,
      "lusty": 6032,
      "montano": 6033,
      "resolution": 6034,
      "française": 6035,
      "physic": 6036,
      "zählung": 6037,
      "neuen": 6038,
      "drive": 6039,
      "articles": 6040,
      "kreis": 6041,
      "gewerkschaft": 6042,
      "honorable": 6043,
      "committed": 6044,
      "points": 6045,
      "kämpfen": 6046,
      "blieb": 6047,
      "slip": 6048,
      "schneider": 6049,
      "krankheit": 6050,
      "scotland": 6051,
      "französischen": 6052,
      "kultur": 6053,
      "acquaintance": 6054,
      "goths": 6055,
      "decay": 6056,
      "nephew": 6057,
      "handkerchief": 6058,
      "dramatis": 6059,
      "stadt": 6060,
      "350": 6061,
      "52": 6062,
      "86": 6063,
      "bours": 6064,
      "fung": 6065,
      "hous": 6066,
      "mlich": 6067,
      "tir": 6068,
      "tion": 6069,
      "érie": 6070,
      "erkenntnis": 6071,
      "envious": 6072,
      "recon": 6073,
      "remor": 6074,
      "befall": 6075,
      "nod": 6076,
      "nox": 6077,
      "hafte": 6078,
      "heits": 6079,
      "weal": 6080,
      "derick": 6081,
      "mak": 6082,
      "ldom": 6083,
      "lois": 6084,
      "imprison": 6085,
      "verlang": 6086,
      "terre": 6087,
      "quench": 6088,
      "aura": 6089,
      "aurait": 6090,
      "ril": 6091,
      "rige": 6092,
      "denken": 6093,
      "faits": 6094,
      "shal": 6095,
      "pocket": 6096,
      "schre": 6097,
      "compar": 6098,
      "umfang": 6099,
      "prost": 6100,
      "bolt": 6101,
      "bohem": 6102,
      "saverne": 6103,
      "venom": 6104,
      "frail": 6105,
      "marvel": 6106,
      "marshal": 6107,
      "gesam": 6108,
      "ows": 6109,
      "ausnahme": 6110,
      "ausgaben": 6111,
      "scal": 6112,
      "cheap": 6113,
      "appointed": 6114,
      "discharge": 6115,
      "muster": 6116,
      "usement": 6117,
      "travell": 6118,
      "bahn": 6119,
      "phil": 6120,
      "vorschriften": 6121,
      "partly": 6122,
      "coron": 6123,
      "corde": 6124,
      "corps": 6125,
      "acadé": 6126,
      "wrest": 6127,
      "frederick": 6128,
      "roses": 6129,
      "ministr": 6130,
      "bush": 6131,
      "capital": 6132,
      "lucilius": 6133,
      "players": 6134,
      "gebie": 6135,
      "lasting": 6136,
      "satz": 6137,
      "lennox": 6138,
      "freedom": 6139,
      "wedding": 6140,
      "basket": 6141,
      "written": 6142,
      "wondr": 6143,
      "wolf": 6144,
      "schrit": 6145,
      "italy": 6146,
      "troyan": 6147,
      "notwendigkeit": 6148,
      "saucy": 6149,
      "beamte": 6150,
      "mediz": 6151,
      "voyage": 6152,
      "jealousy": 6153,
      "vrai": 6154,
      "combat": 6155,
      "trägt": 6156,
      "birds": 6157,
      "savage": 6158,
      "behavi": 6159,
      "agitation": 6160,
      "tyranny": 6161,
      "fortunate": 6162,
      "circumstance": 6163,
      "esprit": 6164,
      "versamm": 6165,
      "immediate": 6166,
      "41": 6167,
      "500": 6168,
      "ago": 6169,
      "bat": 6170,
      "couch": 6171,
      "dat": 6172,
      "date": 6173,
      "fassung": 6174,
      "gardin": 6175,
      "lor": 6176,
      "muse": 6177,
      "nord": 6178,
      "oak": 6179,
      "pied": 6180,
      "rang": 6181,
      "rush": 6182,
      "ssi": 6183,
      "éco": 6184,
      "erreichen": 6185,
      "inspekt": 6186,
      "ancy": 6187,
      "chid": 6188,
      "anders": 6189,
      "item": 6190,
      "ités": 6191,
      "repe": 6192,
      "reicht": 6193,
      "leicht": 6194,
      "mein": 6195,
      "dete": 6196,
      "roi": 6197,
      "vet": 6198,
      "formed": 6199,
      "gehalt": 6200,
      "urg": 6201,
      "ereien": 6202,
      "sobald": 6203,
      "socie": 6204,
      "tete": 6205,
      "cot": 6206,
      "igon": 6207,
      "dote": 6208,
      "dozen": 6209,
      "goose": 6210,
      "estim": 6211,
      "peer": 6212,
      "lying": 6213,
      "ordentlich": 6214,
      "administr": 6215,
      "taus": 6216,
      "exchange": 6217,
      "shun": 6218,
      "saison": 6219,
      "wort": 6220,
      "outlaw": 6221,
      "genden": 6222,
      "cies": 6223,
      "tiers": 6224,
      "marg": 6225,
      "spinn": 6226,
      "grew": 6227,
      "sc_": 6228,
      "mitt": 6229,
      "appla": 6230,
      "disease": 6231,
      "offers": 6232,
      "offices": 6233,
      "travel": 6234,
      "bread": 6235,
      "beside": 6236,
      "blos": 6237,
      "tooth": 6238,
      "preuß": 6239,
      "guile": 6240,
      "guerre": 6241,
      "cloak": 6242,
      "1880": 6243,
      "petits": 6244,
      "armée": 6245,
      "schaffen": 6246,
      "jugend": 6247,
      "pursue": 6248,
      "ledig": 6249,
      "banquet": 6250,
      "harsh": 6251,
      "arbeitsbedingungen": 6252,
      "faithful": 6253,
      "krat": 6254,
      "klären": 6255,
      "happily": 6256,
      "falsehood": 6257,
      "messengers": 6258,
      "signs": 6259,
      "lines": 6260,
      "120": 6261,
      "crying": 6262,
      "préfet": 6263,
      "verhältnissen": 6264,
      "ländern": 6265,
      "knights": 6266,
      "towns": 6267,
      "bedeutend": 6268,
      "gymn": 6269,
      "resolv": 6270,
      "beasts": 6271,
      "zustände": 6272,
      "seize": 6273,
      "reckon": 6274,
      "zählungs": 6275,
      "rememb": 6276,
      "continue": 6277,
      "alexas": 6278,
      "alexander": 6279,
      "conditions": 6280,
      "fifty": 6281,
      "widerstand": 6282,
      "invention": 6283,
      "miserable": 6284,
      "naples": 6285,
      "imagination": 6286,
      "multit": 6287,
      "rhyme": 6288,
      "sceptre": 6289,
      "bohemia": 6290,
      "wondrous": 6291,
      "gardiner": 6292,
      "gymnas": 6293,
      "32": 6294,
      "87": 6295,
      "eld": 6296,
      "ehr": 6297,
      "fs": 6298,
      "fts": 6299,
      "gid": 6300,
      "griff": 6301,
      "jungen": 6302,
      "mire": 6303,
      "mér": 6304,
      "nöt": 6305,
      "sine": 6306,
      "tied": 6307,
      "task": 6308,
      "wün": 6309,
      "ße": 6310,
      "üs": 6311,
      "erfahr": 6312,
      "enth": 6313,
      "anzahl": 6314,
      "chat": 6315,
      "aries": 6316,
      "itable": 6317,
      "rem": 6318,
      "reach": 6319,
      "sex": 6320,
      "ieden": 6321,
      "hears": 6322,
      "ceux": 6323,
      "derby": 6324,
      "soever": 6325,
      "lap": 6326,
      "vertra": 6327,
      "vergleich": 6328,
      "audre": 6329,
      "amity": 6330,
      "nel": 6331,
      "butcher": 6332,
      "fact": 6333,
      "ordre": 6334,
      "sug": 6335,
      "suits": 6336,
      "tren": 6337,
      "tagel": 6338,
      "desto": 6339,
      "design": 6340,
      "ump": 6341,
      "einführung": 6342,
      "quelle": 6343,
      "ident": 6344,
      "bres": 6345,
      "empr": 6346,
      "gress": 6347,
      "serpent": 6348,
      "sple": 6349,
      "spurn": 6350,
      "luimême": 6351,
      "grecian": 6352,
      "owned": 6353,
      "ausbeut": 6354,
      "parley": 6355,
      "zeal": 6356,
      "graves": 6357,
      "hearted": 6358,
      "guarded": 6359,
      "riches": 6360,
      "freie": 6361,
      "wenigen": 6362,
      "flat": 6363,
      "déf": 6364,
      "darüber": 6365,
      "gangen": 6366,
      "compare": 6367,
      "compag": 6368,
      "justly": 6369,
      "younger": 6370,
      "gait": 6371,
      "harmon": 6372,
      "urspr": 6373,
      "humours": 6374,
      "strive": 6375,
      "pension": 6376,
      "haushalt": 6377,
      "stub": 6378,
      "spoil": 6379,
      "provide": 6380,
      "climb": 6381,
      "berech": 6382,
      "1896": 6383,
      "fällen": 6384,
      "weeps": 6385,
      "wisely": 6386,
      "commons": 6387,
      "besondere": 6388,
      "isabel": 6389,
      "160": 6390,
      "goner": 6391,
      "thätigen": 6392,
      "tableau": 6393,
      "knocking": 6394,
      "händen": 6395,
      "pierce": 6396,
      "bestimmungen": 6397,
      "destru": 6398,
      "rente": 6399,
      "größten": 6400,
      "öffentlichen": 6401,
      "verbind": 6402,
      "zurückzuführen": 6403,
      "keller": 6404,
      "jahrhundert": 6405,
      "suspic": 6406,
      "explo": 6407,
      "dorset": 6408,
      "example": 6409,
      "bedürfnisse": 6410,
      "refuse": 6411,
      "style": 6412,
      "shoulders": 6413,
      "miracle": 6414,
      "purchase": 6415,
      "rebellion": 6416,
      "menelaus": 6417,
      "admirable": 6418,
      "rugby": 6419,
      "ack": 6420,
      "caught": 6421,
      "fter": 6422,
      "gü": 6423,
      "gros": 6424,
      "kor": 6425,
      "künst": 6426,
      "lte": 6427,
      "mould": 6428,
      "nim": 6429,
      "oce": 6430,
      "pull": 6431,
      "sher": 6432,
      "tig": 6433,
      "zunehmen": 6434,
      "ölf": 6435,
      "inf": 6436,
      "inct": 6437,
      "inward": 6438,
      "infect": 6439,
      "invisible": 6440,
      "anim": 6441,
      "isto": 6442,
      "orous": 6443,
      "arten": 6444,
      "regan": 6445,
      "beisp": 6446,
      "unken": 6447,
      "habe": 6448,
      "robe": 6449,
      "formen": 6450,
      "forswear": 6451,
      "rapier": 6452,
      "weist": 6453,
      "gehören": 6454,
      "cob": 6455,
      "coû": 6456,
      "cozen": 6457,
      "domin": 6458,
      "vernon": 6459,
      "verkehr": 6460,
      "term": 6461,
      "goût": 6462,
      "amkeit": 6463,
      "nement": 6464,
      "hole": 6465,
      "dice": 6466,
      "divers": 6467,
      "tended": 6468,
      "shapes": 6469,
      "antigon": 6470,
      "pole": 6471,
      "conquest": 6472,
      "conceive": 6473,
      "conjure": 6474,
      "prou": 6475,
      "compl": 6476,
      "composition": 6477,
      "umstand": 6478,
      "indre": 6479,
      "wot": 6480,
      "wohnen": 6481,
      "naire": 6482,
      "nails": 6483,
      "fron": 6484,
      "grim": 6485,
      "greg": 6486,
      "auszu": 6487,
      "lieben": 6488,
      "voici": 6489,
      "montr": 6490,
      "elin": 6491,
      "beso": 6492,
      "beshre": 6493,
      "goddess": 6494,
      "dukedom": 6495,
      "heav": 6496,
      "price": 6497,
      "reser": 6498,
      "acle": 6499,
      "waking": 6500,
      "curst": 6501,
      "renowned": 6502,
      "reiche": 6503,
      "compense": 6504,
      "bore": 6505,
      "beiden": 6506,
      "act_": 6507,
      "acts": 6508,
      "learning": 6509,
      "arbeiterinnenschutz": 6510,
      "strife": 6511,
      "huit": 6512,
      "famous": 6513,
      "williams": 6514,
      "earthly": 6515,
      "iens": 6516,
      "zwölf": 6517,
      "exceeding": 6518,
      "illeurs": 6519,
      "vielen": 6520,
      "wishes": 6521,
      "journey": 6522,
      "instit": 6523,
      "publius": 6524,
      "fields": 6525,
      "starve": 6526,
      "piété": 6527,
      "leads": 6528,
      "obedient": 6529,
      "shown": 6530,
      "lösung": 6531,
      "sixth": 6532,
      "grievous": 6533,
      "alice": 6534,
      "vollständig": 6535,
      "wachstum": 6536,
      "torch": 6537,
      "häuser": 6538,
      "hilfe": 6539,
      "sembl": 6540,
      "politische": 6541,
      "außerordentlich": 6542,
      "pflegen": 6543,
      "troubled": 6544,
      "1881": 6545,
      "trotzdem": 6546,
      "wollte": 6547,
      "assurance": 6548,
      "fifth": 6549,
      "different": 6550,
      "torture": 6551,
      "rebels": 6552,
      "fonction": 6553,
      "stamp": 6554,
      "conference": 6555,
      "accident": 6556,
      "clerk": 6557,
      "pronounce": 6558,
      "orchard": 6559,
      "subtle": 6560,
      "seulement": 6561,
      "ausdehnung": 6562,
      "discretion": 6563,
      "remorse": 6564,
      "audrey": 6565,
      "goneril": 6566,
      "destruction": 6567,
      "suspicion": 6568,
      "beispiel": 6569,
      "antigonus": 6570,
      "beshrew": 6571,
      "31": 6572,
      "71": 6573,
      "bé": 6574,
      "bul": 6575,
      "eman": 6576,
      "fassen": 6577,
      "gard": 6578,
      "jes": 6579,
      "jung": 6580,
      "jed": 6581,
      "namen": 6582,
      "oo": 6583,
      "oy": 6584,
      "trom": 6585,
      "ued": 6586,
      "zut": 6587,
      "èrent": 6588,
      "ender": 6589,
      "lla": 6590,
      "stafford": 6591,
      "reco": 6592,
      "remove": 6593,
      "redress": 6594,
      "reconna": 6595,
      "représent": 6596,
      "belov": 6597,
      "beloved": 6598,
      "depiété": 6599,
      "liver": 6600,
      "entum": 6601,
      "weisen": 6602,
      "soil": 6603,
      "sogenann": 6604,
      "coll": 6605,
      "keinen": 6606,
      "notice": 6607,
      "nete": 6608,
      "estce": 6609,
      "wills": 6610,
      "manif": 6611,
      "desp": 6612,
      "despis": 6613,
      "umen": 6614,
      "shri": 6615,
      "shines": 6616,
      "bleeding": 6617,
      "eintritt": 6618,
      "cians": 6619,
      "sive": 6620,
      "enterprise": 6621,
      "fried": 6622,
      "steps": 6623,
      "theirs": 6624,
      "daily": 6625,
      "para": 6626,
      "scour": 6627,
      "dismiss": 6628,
      "gently": 6629,
      "trees": 6630,
      "ireland": 6631,
      "nerinnen": 6632,
      "standes": 6633,
      "angewiesen": 6634,
      "county": 6635,
      "aged": 6636,
      "wrink": 6637,
      "vapeur": 6638,
      "wenige": 6639,
      "tricks": 6640,
      "vereinen": 6641,
      "llos": 6642,
      "kindred": 6643,
      "system": 6644,
      "confusion": 6645,
      "issance": 6646,
      "ringen": 6647,
      "gelassen": 6648,
      "gleicher": 6649,
      "joyful": 6650,
      "singing": 6651,
      "sommes": 6652,
      "youthful": 6653,
      "direction": 6654,
      "cule": 6655,
      "higher": 6656,
      "lately": 6657,
      "näch": 6658,
      "christen": 6659,
      "thrift": 6660,
      "pitiful": 6661,
      "message": 6662,
      "hairs": 6663,
      "bestimmung": 6664,
      "setzt": 6665,
      "sozialdemo": 6666,
      "montdepiété": 6667,
      "robb": 6668,
      "figures": 6669,
      "kurz": 6670,
      "error": 6671,
      "pflege": 6672,
      "neuer": 6673,
      "rappe": 6674,
      "verschiedenen": 6675,
      "mäßig": 6676,
      "kellnerin": 6677,
      "smiling": 6678,
      "persuade": 6679,
      "schuld": 6680,
      "contract": 6681,
      "instruct": 6682,
      "italien": 6683,
      "determin": 6684,
      "gewöhn": 6685,
      "1861": 6686,
      "intelligence": 6687,
      "regierung": 6688,
      "scroop": 6689,
      "privilege": 6690,
      "cordelia": 6691,
      "blossom": 6692,
      "spleen": 6693,
      "stubborn": 6694,
      "emanzip": 6695,
      "jedes": 6696,
      "afe": 6697,
      "cute": 6698,
      "ey": 6699,
      "ffe": 6700,
      "furch": 6701,
      "fice": 6702,
      "gute": 6703,
      "hing": 6704,
      "hir": 6705,
      "jam": 6706,
      "junge": 6707,
      "krie": 6708,
      "nü": 6709,
      "pence": 6710,
      "rar": 6711,
      "rouse": 6712,
      "squ": 6713,
      "tête": 6714,
      "yard": 6715,
      "èce": 6716,
      "éon": 6717,
      "öster": 6718,
      "erous": 6719,
      "erreich": 6720,
      "enstern": 6721,
      "ino": 6722,
      "ining": 6723,
      "inted": 6724,
      "injury": 6725,
      "orus": 6726,
      "lling": 6727,
      "mechan": 6728,
      "beats": 6729,
      "unkind": 6730,
      "sets": 6731,
      "hab": 6732,
      "hap": 6733,
      "deaf": 6734,
      "helia": 6735,
      "forme": 6736,
      "likes": 6737,
      "week": 6738,
      "gelt": 6739,
      "geworden": 6740,
      "mae": 6741,
      "maître": 6742,
      "ursachen": 6743,
      "imp": 6744,
      "igste": 6745,
      "verbot": 6746,
      "verpflich": 6747,
      "etta": 6748,
      "terror": 6749,
      "divin": 6750,
      "feder": 6751,
      "mantu": 6752,
      "antic": 6753,
      "endant": 6754,
      "moy": 6755,
      "exer": 6756,
      "box": 6757,
      "uel": 6758,
      "ulph": 6759,
      "granted": 6760,
      "gien": 6761,
      "warri": 6762,
      "lux": 6763,
      "ausreich": 6764,
      "whereon": 6765,
      "scand": 6766,
      "brown": 6767,
      "telling": 6768,
      "yellow": 6769,
      "oppose": 6770,
      "ophelia": 6771,
      "breaking": 6772,
      "jaquen": 6773,
      "corse": 6774,
      "corne": 6775,
      "resign": 6776,
      "rescue": 6777,
      "access": 6778,
      "distance": 6779,
      "newly": 6780,
      "clean": 6781,
      "crest": 6782,
      "helm": 6783,
      "falling": 6784,
      "presque": 6785,
      "ighted": 6786,
      "année": 6787,
      "darf": 6788,
      "curses": 6789,
      "wäch": 6790,
      "mäg": 6791,
      "gegenwär": 6792,
      "gather": 6793,
      "selbstverständ": 6794,
      "révol": 6795,
      "kommission": 6796,
      "pleasing": 6797,
      "blast": 6798,
      "fares": 6799,
      "stellungen": 6800,
      "geblieben": 6801,
      "teilen": 6802,
      "führte": 6803,
      "grandam": 6804,
      "milit": 6805,
      "commands": 6806,
      "running": 6807,
      "champ": 6808,
      "growing": 6809,
      "delivered": 6810,
      "kissing": 6811,
      "pandulph": 6812,
      "avaient": 6813,
      "betrachten": 6814,
      "prinzip": 6815,
      "fleet": 6816,
      "quarter": 6817,
      "shook": 6818,
      "stände": 6819,
      "herrschaft": 6820,
      "läss": 6821,
      "vereinigte": 6822,
      "freilich": 6823,
      "fangen": 6824,
      "national": 6825,
      "rifft": 6826,
      "tribun": 6827,
      "cependant": 6828,
      "kreisen": 6829,
      "rücksicht": 6830,
      "einzigen": 6831,
      "satisfy": 6832,
      "meantime": 6833,
      "besitz": 6834,
      "supply": 6835,
      "weapon": 6836,
      "shoulder": 6837,
      "näherinnen": 6838,
      "troops": 6839,
      "europe": 6840,
      "gehört": 6841,
      "kapital": 6842,
      "tribute": 6843,
      "clamation": 6844,
      "femme": 6845,
      "capable": 6846,
      "photographie": 6847,
      "increase": 6848,
      "guildenstern": 6849,
      "gobbo": 6850,
      "gesetze": 6851,
      "medizin": 6852,
      "giddy": 6853,
      "ausbeutung": 6854,
      "afeard": 6855,
      "jaquenetta": 6856,
      "225": 6857,
      "aden": 6858,
      "ael": 6859,
      "eind": 6860,
      "fän": 6861,
      "hart": 6862,
      "hue": 6863,
      "hire": 6864,
      "ians": 6865,
      "ize": 6866,
      "lish": 6867,
      "lungen": 6868,
      "massen": 6869,
      "swo": 6870,
      "sna": 6871,
      "tled": 6872,
      "vass": 6873,
      "chtet": 6874,
      "arrest": 6875,
      "ati": 6876,
      "record": 6877,
      "beide": 6878,
      "unmöglich": 6879,
      "seldom": 6880,
      "haunt": 6881,
      "forty": 6882,
      "wept": 6883,
      "gegeben": 6884,
      "gezogen": 6885,
      "ursache": 6886,
      "sollen": 6887,
      "doit": 6888,
      "vertre": 6889,
      "qué": 6890,
      "ami": 6891,
      "peev": 6892,
      "divor": 6893,
      "herd": 6894,
      "fehl": 6895,
      "ordnungen": 6896,
      "conbridge": 6897,
      "prus": 6898,
      "licht": 6899,
      "share": 6900,
      "boar": 6901,
      "woche": 6902,
      "gence": 6903,
      "dul": 6904,
      "tick": 6905,
      "bran": 6906,
      "grâ": 6907,
      "grunde": 6908,
      "steep": 6909,
      "spy": 6910,
      "spie": 6911,
      "space": 6912,
      "glück": 6913,
      "spec": 6914,
      "greeks": 6915,
      "demnach": 6916,
      "lieb": 6917,
      "dispose": 6918,
      "monat": 6919,
      "brochen": 6920,
      "trava": 6921,
      "strumpet": 6922,
      "breeding": 6923,
      "wirkt": 6924,
      "drinking": 6925,
      "platz": 6926,
      "iale": 6927,
      "ibal": 6928,
      "petty": 6929,
      "hated": 6930,
      "pourtant": 6931,
      "begun": 6932,
      "burst": 6933,
      "curtis": 6934,
      "current": 6935,
      "autor": 6936,
      "element": 6937,
      "keeping": 6938,
      "ruff": 6939,
      "gaze": 6940,
      "value": 6941,
      "interest": 6942,
      "cherish": 6943,
      "kills": 6944,
      "walter": 6945,
      "murd": 6946,
      "needful": 6947,
      "lays": 6948,
      "großstäd": 6949,
      "breaks": 6950,
      "laughter": 6951,
      "strongly": 6952,
      "delicate": 6953,
      "starke": 6954,
      "flame": 6955,
      "geistes": 6956,
      "defy": 6957,
      "statue": 6958,
      "schließen": 6959,
      "differen": 6960,
      "actions": 6961,
      "liberté": 6962,
      "vierzehn": 6963,
      "öffentliche": 6964,
      "cowards": 6965,
      "resolve": 6966,
      "nombre": 6967,
      "scope": 6968,
      "selbständigen": 6969,
      "beschränkt": 6970,
      "beware": 6971,
      "lumière": 6972,
      "modernen": 6973,
      "gnant": 6974,
      "determine": 6975,
      "général": 6976,
      "ancest": 6977,
      "gegner": 6978,
      "berechtigung": 6979,
      "michael": 6980,
      "thirty": 6981,
      "apprehen": 6982,
      "musicians": 6983,
      "hippoly": 6984,
      "correction": 6985,
      "swallow": 6986,
      "neglect": 6987,
      "graphen": 6988,
      "weberei": 6989,
      "andrew": 6990,
      "houses": 6991,
      "académie": 6992,
      "zählungsperiode": 6993,
      "ocean": 6994,
      "peevish": 6995,
      "54": 6996,
      "84": 6997,
      "aunt": 6998,
      "apace": 6999,
      "bble": 7000,
      "bation": 7001,
      "bons": 7002,
      "cine": 7003,
      "dine": 7004,
      "gst": 7005,
      "gag": 7006,
      "günst": 7007,
      "hounds": 7008,
      "ided": 7009,
      "jer": 7010,
      "mê": 7011,
      "ost": 7012,
      "ope": 7013,
      "pag": 7014,
      "rt": 7015,
      "rut": 7016,
      "sman": 7017,
      "tour": 7018,
      "tard": 7019,
      "vaux": 7020,
      "zy": 7021,
      "éri": 7022,
      "erster": 7023,
      "ensu": 7024,
      "inate": 7025,
      "insult": 7026,
      "oured": 7027,
      "ouvra": 7028,
      "chur": 7029,
      "argent": 7030,
      "theme": 7031,
      "reç": 7032,
      "rear": 7033,
      "revi": 7034,
      "toire": 7035,
      "bele": 7036,
      "befrei": 7037,
      "beheld": 7038,
      "beherrsch": 7039,
      "beguile": 7040,
      "undo": 7041,
      "seed": 7042,
      "devo": 7043,
      "rosen": 7044,
      "liking": 7045,
      "lift": 7046,
      "entra": 7047,
      "raison": 7048,
      "derselben": 7049,
      "teten": 7050,
      "laden": 7051,
      "loß": 7052,
      "lodge": 7053,
      "keits": 7054,
      "vermitt": 7055,
      "gover": 7056,
      "quint": 7057,
      "butter": 7058,
      "diest": 7059,
      "iles": 7060,
      "denselben": 7061,
      "fever": 7062,
      "manhood": 7063,
      "shade": 7064,
      "shadows": 7065,
      "advers": 7066,
      "trink": 7067,
      "schmut": 7068,
      "schwei": 7069,
      "tax": 7070,
      "proph": 7071,
      "indign": 7072,
      "perf": 7073,
      "shill": 7074,
      "bleibt": 7075,
      "worcester": 7076,
      "fragen": 7077,
      "thane": 7078,
      "ulate": 7079,
      "serious": 7080,
      "span": 7081,
      "üren": 7082,
      "mischen": 7083,
      "german": 7084,
      "scrat": 7085,
      "foreign": 7086,
      "plains": 7087,
      "vois": 7088,
      "disci": 7089,
      "dispos": 7090,
      "elf": 7091,
      "praises": 7092,
      "headed": 7093,
      "parting": 7094,
      "ported": 7095,
      "portraits": 7096,
      "betrifft": 7097,
      "reste": 7098,
      "ideen": 7099,
      "lesser": 7100,
      "cyprus": 7101,
      "pping": 7102,
      "ielded": 7103,
      "lights": 7104,
      "dienste": 7105,
      "bushy": 7106,
      "industrien": 7107,
      "killing": 7108,
      "walks": 7109,
      "ktor": 7110,
      "couple": 7111,
      "hotspur": 7112,
      "solanio": 7113,
      "mettle": 7114,
      "palm": 7115,
      "thankful": 7116,
      "gesetzlichen": 7117,
      "cousine": 7118,
      "milch": 7119,
      "kneels": 7120,
      "crime": 7121,
      "weibes": 7122,
      "instance": 7123,
      "commonwealth": 7124,
      "magn": 7125,
      "empere": 7126,
      "trouver": 7127,
      "aboard": 7128,
      "burns": 7129,
      "länd": 7130,
      "beholding": 7131,
      "drinks": 7132,
      "gründen": 7133,
      "succe": 7134,
      "easily": 7135,
      "received": 7136,
      "cenas": 7137,
      "censure": 7138,
      "florence": 7139,
      "merely": 7140,
      "rousillon": 7141,
      "erklärt": 7142,
      "sicilia": 7143,
      "moderne": 7144,
      "dürfte": 7145,
      "instruments": 7146,
      "divide": 7147,
      "wöchentlich": 7148,
      "preparation": 7149,
      "partei": 7150,
      "conclude": 7151,
      "zweifellos": 7152,
      "erfolg": 7153,
      "gebracht": 7154,
      "ernährung": 7155,
      "vérité": 7156,
      "ceremony": 7157,
      "ambassador": 7158,
      "schwierigkeit": 7159,
      "geschieht": 7160,
      "conclusion": 7161,
      "society": 7162,
      "verbindung": 7163,
      "elinor": 7164,
      "sozialdemokrat": 7165,
      "maecenas": 7166,
      "ouvrages": 7167,
      "93": 7168,
      "aw": 7169,
      "baum": 7170,
      "cis": 7171,
      "cit": 7172,
      "drow": 7173,
      "diger": 7174,
      "eded": 7175,
      "foun": 7176,
      "file": 7177,
      "gä": 7178,
      "ira": 7179,
      "mmer": 7180,
      "ppe": 7181,
      "snat": 7182,
      "sät": 7183,
      "uchen": 7184,
      "zes": 7185,
      "zir": 7186,
      "èle": 7187,
      "thun": 7188,
      "ences": 7189,
      "inous": 7190,
      "oracle": 7191,
      "chas": 7192,
      "repose": 7193,
      "retreat": 7194,
      "recompense": 7195,
      "leb": 7196,
      "leichter": 7197,
      "beque": 7198,
      "bezie": 7199,
      "beteili": 7200,
      "unity": 7201,
      "noted": 7202,
      "ieux": 7203,
      "haften": 7204,
      "defect": 7205,
      "depend": 7206,
      "ashes": 7207,
      "hey": 7208,
      "heap": 7209,
      "heili": 7210,
      "veins": 7211,
      "veux": 7212,
      "entend": 7213,
      "aloud": 7214,
      "gewalt": 7215,
      "mast": 7216,
      "solic": 7217,
      "laur": 7218,
      "lower": 7219,
      "imit": 7220,
      "verdient": 7221,
      "howe": 7222,
      "dict": 7223,
      "cken": 7224,
      "ared": 7225,
      "faßt": 7226,
      "tap": 7227,
      "tages": 7228,
      "illet": 7229,
      "moving": 7230,
      "process": 7231,
      "provin": 7232,
      "perpet": 7233,
      "board": 7234,
      "uste": 7235,
      "sagt": 7236,
      "cape": 7237,
      "einander": 7238,
      "einige": 7239,
      "working": 7240,
      "vii": 7241,
      "genü": 7242,
      "napol": 7243,
      "naires": 7244,
      "sieht": 7245,
      "geste": 7246,
      "gesicher": 7247,
      "ateurs": 7248,
      "steigen": 7249,
      "spé": 7250,
      "spread": 7251,
      "aufzu": 7252,
      "likely": 7253,
      "luc": 7254,
      "frauenvereine": 7255,
      "handwerk": 7256,
      "disco": 7257,
      "dissol": 7258,
      "diseas": 7259,
      "grac": 7260,
      "trage": 7261,
      "tradition": 7262,
      "sweise": 7263,
      "iselle": 7264,
      "joan": 7265,
      "sensible": 7266,
      "longtemps": 7267,
      "closet": 7268,
      "sweetly": 7269,
      "180": 7270,
      "wenigsten": 7271,
      "wahl": 7272,
      "mightst": 7273,
      "dauern": 7274,
      "couldst": 7275,
      "franch": 7276,
      "minder": 7277,
      "beider": 7278,
      "carri": 7279,
      "busy": 7280,
      "afternoon": 7281,
      "threw": 7282,
      "sitten": 7283,
      "suffici": 7284,
      "captains": 7285,
      "waters": 7286,
      "slay": 7287,
      "ilius": 7288,
      "bottle": 7289,
      "matters": 7290,
      "famille": 7291,
      "husbands": 7292,
      "stale": 7293,
      "gebil": 7294,
      "joys": 7295,
      "allegi": 7296,
      "touching": 7297,
      "grandsire": 7298,
      "mögen": 7299,
      "subdu": 7300,
      "strangely": 7301,
      "summon": 7302,
      "donne": 7303,
      "suppos": 7304,
      "idence": 7305,
      "occup": 7306,
      "stehende": 7307,
      "magistr": 7308,
      "empire": 7309,
      "sisters": 7310,
      "stark": 7311,
      "writes": 7312,
      "quarre": 7313,
      "gestat": 7314,
      "woeful": 7315,
      "bosoms": 7316,
      "forderte": 7317,
      "sollten": 7318,
      "conceal": 7319,
      "beams": 7320,
      "effects": 7321,
      "erwerbsarbeit": 7322,
      "alexand": 7323,
      "sitting": 7324,
      "turk": 7325,
      "throats": 7326,
      "beruht": 7327,
      "jewels": 7328,
      "government": 7329,
      "behaup": 7330,
      "arbeiterschutzes": 7331,
      "extremity": 7332,
      "chefs": 7333,
      "stärk": 7334,
      "sechs": 7335,
      "apparent": 7336,
      "untersuchungen": 7337,
      "vulgar": 7338,
      "bestrebungen": 7339,
      "resultat": 7340,
      "material": 7341,
      "studium": 7342,
      "scurvy": 7343,
      "gehilfen": 7344,
      "physician": 7345,
      "ingratitude": 7346,
      "praktis": 7347,
      "behaviour": 7348,
      "eldest": 7349,
      "furcht": 7350,
      "mantua": 7351,
      "révolution": 7352,
      "mêmes": 7353,
      "scratch": 7354,
      "napoléon": 7355,
      "adem": 7356,
      "bone": 7357,
      "bout": 7358,
      "fou": 7359,
      "gungen": 7360,
      "lun": 7361,
      "plo": 7362,
      "path": 7363,
      "rust": 7364,
      "sw": 7365,
      "skin": 7366,
      "swain": 7367,
      "ène": 7368,
      "eres": 7369,
      "erie": 7370,
      "eral": 7371,
      "erklären": 7372,
      "enrich": 7373,
      "endower": 7374,
      "infer": 7375,
      "insol": 7376,
      "anstellung": 7377,
      "orts": 7378,
      "stabs": 7379,
      "itent": 7380,
      "itive": 7381,
      "reve": 7382,
      "rebu": 7383,
      "lecher": 7384,
      "meas": 7385,
      "metal": 7386,
      "bewohn": 7387,
      "unted": 7388,
      "decius": 7389,
      "asham": 7390,
      "forsake": 7391,
      "lions": 7392,
      "gewicht": 7393,
      "gedanken": 7394,
      "tech": 7395,
      "coats": 7396,
      "dove": 7397,
      "verte": 7398,
      "verses": 7399,
      "ault": 7400,
      "austri": 7401,
      "aucun": 7402,
      "neun": 7403,
      "hob": 7404,
      "riot": 7405,
      "pell": 7406,
      "denmark": 7407,
      "herren": 7408,
      "sui": 7409,
      "tenir": 7410,
      "advan": 7411,
      "antz": 7412,
      "trim": 7413,
      "schau": 7414,
      "whate": 7415,
      "tabak": 7416,
      "contain": 7417,
      "print": 7418,
      "comé": 7419,
      "endlich": 7420,
      "moves": 7421,
      "moiselle": 7422,
      "umes": 7423,
      "procure": 7424,
      "exile": 7425,
      "exped": 7426,
      "kingly": 7427,
      "perdu": 7428,
      "permet": 7429,
      "boats": 7430,
      "boots": 7431,
      "thereby": 7432,
      "viend": 7433,
      "arbeitenden": 7434,
      "grass": 7435,
      "merri": 7436,
      "mercut": 7437,
      "glendower": 7438,
      "lty": 7439,
      "dach": 7440,
      "abzu": 7441,
      "abends": 7442,
      "likewise": 7443,
      "owes": 7444,
      "ioli": 7445,
      "plebei": 7446,
      "aussicht": 7447,
      "ausdrück": 7448,
      "parler": 7449,
      "volle": 7450,
      "landarbeiter": 7451,
      "swears": 7452,
      "fires": 7453,
      "blot": 7454,
      "preis": 7455,
      "blue": 7456,
      "corioli": 7457,
      "guide": 7458,
      "prime": 7459,
      "barnard": 7460,
      "mademoiselle": 7461,
      "fearing": 7462,
      "tainted": 7463,
      "natures": 7464,
      "putz": 7465,
      "flout": 7466,
      "crantz": 7467,
      "talents": 7468,
      "beds": 7469,
      "sorgen": 7470,
      "tempor": 7471,
      "rights": 7472,
      "renown": 7473,
      "affen": 7474,
      "compli": 7475,
      "lightning": 7476,
      "anderes": 7477,
      "bidding": 7478,
      "game": 7479,
      "ferner": 7480,
      "throng": 7481,
      "rép": 7482,
      "turning": 7483,
      "overdone": 7484,
      "forms": 7485,
      "stocks": 7486,
      "gott": 7487,
      "touches": 7488,
      "signify": 7489,
      "subscri": 7490,
      "gemeins": 7491,
      "royalty": 7492,
      "publique": 7493,
      "lerinnen": 7494,
      "bilden": 7495,
      "näh": 7496,
      "rechnen": 7497,
      "spricht": 7498,
      "wohnungen": 7499,
      "unsere": 7500,
      "wooing": 7501,
      "assem": 7502,
      "succès": 7503,
      "vanish": 7504,
      "knocks": 7505,
      "richtungen": 7506,
      "weakness": 7507,
      "hörigen": 7508,
      "häusliche": 7509,
      "aegeon": 7510,
      "deceit": 7511,
      "samp": 7512,
      "beamten": 7513,
      "froth": 7514,
      "erklärte": 7515,
      "besitzen": 7516,
      "apollo": 7517,
      "arriv": 7518,
      "cteurs": 7519,
      "mud": 7520,
      "boulev": 7521,
      "loyalty": 7522,
      "kunft": 7523,
      "provok": 7524,
      "gründete": 7525,
      "ergän": 7526,
      "leitung": 7527,
      "grenzen": 7528,
      "bureaux": 7529,
      "treacherous": 7530,
      "reihe": 7531,
      "eagle": 7532,
      "sämt": 7533,
      "gunsten": 7534,
      "pearl": 7535,
      "bundes": 7536,
      "textilindustrie": 7537,
      "unterschied": 7538,
      "secrets": 7539,
      "rejoice": 7540,
      "shift": 7541,
      "erscheinung": 7542,
      "prostitution": 7543,
      "administration": 7544,
      "tagelöhn": 7545,
      "nimble": 7546,
      "hippolyta": 7547,
      "rutland": 7548,
      "befreiung": 7549,
      "rosencrantz": 7550,
      "schmutz": 7551,
      "discipl": 7552,
      "allegiance": 7553,
      "austria": 7554,
      "mercutio": 7555,
      "barnardine": 7556,
      "112": 7557,
      "68": 7558,
      "95": 7559,
      "aver": 7560,
      "cence": 7561,
      "gna": 7562,
      "kassen": 7563,
      "mals": 7564,
      "nant": 7565,
      "oted": 7566,
      "obst": 7567,
      "oot": 7568,
      "pä": 7569,
      "père": 7570,
      "tas": 7571,
      "upr": 7572,
      "uous": 7573,
      "vater": 7574,
      "zar": 7575,
      "écut": 7576,
      "erhö": 7577,
      "invali": 7578,
      "anno": 7579,
      "oui": 7580,
      "ché": 7581,
      "chap": 7582,
      "ardo": 7583,
      "stal": 7584,
      "itel": 7585,
      "reput": 7586,
      "require": 7587,
      "level": 7588,
      "beget": 7589,
      "became": 7590,
      "befinden": 7591,
      "beträgt": 7592,
      "ieu": 7593,
      "iety": 7594,
      "hack": 7595,
      "wipe": 7596,
      "roll": 7597,
      "veut": 7598,
      "liament": 7599,
      "entweder": 7600,
      "web": 7601,
      "wegen": 7602,
      "irs": 7603,
      "ury": 7604,
      "code": 7605,
      "keen": 7606,
      "immortal": 7607,
      "verwand": 7608,
      "alliance": 7609,
      "hosp": 7610,
      "river": 7611,
      "hist": 7612,
      "peep": 7613,
      "division": 7614,
      "ilt": 7615,
      "willow": 7616,
      "poster": 7617,
      "trunk": 7618,
      "schein": 7619,
      "schäd": 7620,
      "cons": 7621,
      "mood": 7622,
      "descri": 7623,
      "hren": 7624,
      "istischen": 7625,
      "wore": 7626,
      "vict": 7627,
      "genre": 7628,
      "siward": 7629,
      "afoot": 7630,
      "tic": 7631,
      "sonst": 7632,
      "atete": 7633,
      "ghted": 7634,
      "abbess": 7635,
      "jedem": 7636,
      "parliament": 7637,
      "whereto": 7638,
      "plac": 7639,
      "appoint": 7640,
      "distress": 7641,
      "landes": 7642,
      "stren": 7643,
      "strate": 7644,
      "besie": 7645,
      "sens": 7646,
      "senseless": 7647,
      "stande": 7648,
      "vorhand": 7649,
      "drunken": 7650,
      "blanch": 7651,
      "bleness": 7652,
      "setting": 7653,
      "horrible": 7654,
      "garland": 7655,
      "acy": 7656,
      "madman": 7657,
      "sweetest": 7658,
      "wenden": 7659,
      "trifle": 7660,
      "pture": 7661,
      "englische": 7662,
      "presse": 7663,
      "evermore": 7664,
      "darum": 7665,
      "curio": 7666,
      "rightly": 7667,
      "carries": 7668,
      "juste": 7669,
      "bank": 7670,
      "valer": 7671,
      "ventidius": 7672,
      "konstat": 7673,
      "sandys": 7674,
      "gleiche": 7675,
      "großer": 7676,
      "stufe": 7677,
      "damen": 7678,
      "faul": 7679,
      "heiratete": 7680,
      "palais": 7681,
      "gesetzes": 7682,
      "könig": 7683,
      "bereits": 7684,
      "möglichen": 7685,
      "strew": 7686,
      "medit": 7687,
      "osr": 7688,
      "certainly": 7689,
      "deserving": 7690,
      "hungry": 7691,
      "trieben": 7692,
      "suitor": 7693,
      "wesens": 7694,
      "evils": 7695,
      "burnt": 7696,
      "ugly": 7697,
      "geistig": 7698,
      "sovereignty": 7699,
      "herrn": 7700,
      "safely": 7701,
      "soziale": 7702,
      "freiwill": 7703,
      "keines": 7704,
      "proletari": 7705,
      "leaving": 7706,
      "beschäftigung": 7707,
      "ragged": 7708,
      "stopp": 7709,
      "proceeding": 7710,
      "kingdoms": 7711,
      "aedi": 7712,
      "pfleger": 7713,
      "selbständige": 7714,
      "fantast": 7715,
      "schlecht": 7716,
      "absolut": 7717,
      "schlaf": 7718,
      "guts": 7719,
      "lorsque": 7720,
      "eigene": 7721,
      "schuh": 7722,
      "pflichten": 7723,
      "wöchnerinnen": 7724,
      "virginity": 7725,
      "roaring": 7726,
      "andererseits": 7727,
      "untersuchung": 7728,
      "imperial": 7729,
      "sprach": 7730,
      "admiration": 7731,
      "mauvais": 7732,
      "opposite": 7733,
      "doublet": 7734,
      "verfügung": 7735,
      "ministre": 7736,
      "convenient": 7737,
      "peintre": 7738,
      "cassandra": 7739,
      "übrigen": 7740,
      "gesundheit": 7741,
      "reproach": 7742,
      "anstalten": 7743,
      "yesterday": 7744,
      "deputy": 7745,
      "gebiete": 7746,
      "versammlung": 7747,
      "école": 7748,
      "multitude": 7749,
      "acknow": 7750,
      "sheriff": 7751,
      "grâce": 7752,
      "specta": 7753,
      "empereur": 7754,
      "alexandria": 7755,
      "expedition": 7756,
      "plebeians": 7757,
      "275": 7758,
      "98": 7759,
      "bâ": 7760,
      "gän": 7761,
      "hare": 7762,
      "lis": 7763,
      "nig": 7764,
      "oir": 7765,
      "owed": 7766,
      "push": 7767,
      "sl": 7768,
      "sounded": 7769,
      "slum": 7770,
      "tie": 7771,
      "wuch": 7772,
      "yon": 7773,
      "yielded": 7774,
      "zounds": 7775,
      "élè": 7776,
      "üb": 7777,
      "ühen": 7778,
      "energ": 7779,
      "inander": 7780,
      "angesicht": 7781,
      "iser": 7782,
      "orient": 7783,
      "arf": 7784,
      "attent": 7785,
      "stout": 7786,
      "recre": 7787,
      "requite": 7788,
      "leider": 7789,
      "bey": 7790,
      "bege": 7791,
      "beguil": 7792,
      "betreff": 7793,
      "befried": 7794,
      "uner": 7795,
      "haup": 7796,
      "devis": 7797,
      "asion": 7798,
      "heft": 7799,
      "robes": 7800,
      "liken": 7801,
      "entbe": 7802,
      "radi": 7803,
      "altogether": 7804,
      "utt": 7805,
      "teile": 7806,
      "cook": 7807,
      "coast": 7808,
      "notes": 7809,
      "ourself": 7810,
      "allmä": 7811,
      "amends": 7812,
      "dier": 7813,
      "herstellung": 7814,
      "fel": 7815,
      "feat": 7816,
      "manage": 7817,
      "antes": 7818,
      "pop": 7819,
      "schol": 7820,
      "schlim": 7821,
      "consum": 7822,
      "deshalb": 7823,
      "examen": 7824,
      "perjur": 7825,
      "einzu": 7826,
      "worfen": 7827,
      "worms": 7828,
      "vices": 7829,
      "dukes": 7830,
      "sheet": 7831,
      "affaire": 7832,
      "venu": 7833,
      "venus": 7834,
      "arbeitet": 7835,
      "arbeitgeber": 7836,
      "anspr": 7837,
      "ansicht": 7838,
      "frucht": 7839,
      "knowest": 7840,
      "merc": 7841,
      "gic": 7842,
      "seront": 7843,
      "glend": 7844,
      "spect": 7845,
      "selfsame": 7846,
      "aufs": 7847,
      "aufgabe": 7848,
      "owl": 7849,
      "ausbreit": 7850,
      "seeking": 7851,
      "seeks": 7852,
      "app": 7853,
      "telle": 7854,
      "tellus": 7855,
      "baw": 7856,
      "bait": 7857,
      "timely": 7858,
      "opfer": 7859,
      "drit": 7860,
      "prece": 7861,
      "parti": 7862,
      "betimes": 7863,
      "pless": 7864,
      "deaths": 7865,
      "bargain": 7866,
      "called": 7867,
      "holding": 7868,
      "crim": 7869,
      "talking": 7870,
      "schaffung": 7871,
      "ships": 7872,
      "condam": 7873,
      "nobleman": 7874,
      "pfen": 7875,
      "clou": 7876,
      "wären": 7877,
      "elements": 7878,
      "tents": 7879,
      "volon": 7880,
      "answers": 7881,
      "kräft": 7882,
      "student": 7883,
      "entspr": 7884,
      "heirs": 7885,
      "alledem": 7886,
      "125": 7887,
      "breathing": 7888,
      "weiß": 7889,
      "kleine": 7890,
      "donné": 7891,
      "1899": 7892,
      "engag": 7893,
      "alleinstehenden": 7894,
      "rasch": 7895,
      "wesentlichen": 7896,
      "qualities": 7897,
      "zog": 7898,
      "writing": 7899,
      "danach": 7900,
      "paul": 7901,
      "lark": 7902,
      "wheel": 7903,
      "pitied": 7904,
      "wonderful": 7905,
      "throws": 7906,
      "offences": 7907,
      "fordert": 7908,
      "severally": 7909,
      "größte": 7910,
      "varlet": 7911,
      "reply": 7912,
      "öffnet": 7913,
      "alarums": 7914,
      "innocence": 7915,
      "gliedern": 7916,
      "instantly": 7917,
      "ministers": 7918,
      "imagine": 7919,
      "blieben": 7920,
      "universität": 7921,
      "refus": 7922,
      "aerzte": 7923,
      "expectation": 7924,
      "stabb": 7925,
      "juno": 7926,
      "bureau": 7927,
      "treachery": 7928,
      "intérêt": 7929,
      "preserve": 7930,
      "beggars": 7931,
      "étranger": 7932,
      "théâ": 7933,
      "comforts": 7934,
      "sachsen": 7935,
      "dieselben": 7936,
      "religious": 7937,
      "keinerlei": 7938,
      "gloire": 7939,
      "lodging": 7940,
      "verkäuferinnen": 7941,
      "peasant": 7942,
      "conservato": 7943,
      "gymnasien": 7944,
      "griffith": 7945,
      "suggest": 7946,
      "jesu": 7947,
      "cornelius": 7948,
      "divorce": 7949,
      "governor": 7950,
      "angesichts": 7951,
      "96": 7952,
      "ete": 7953,
      "hle": 7954,
      "hound": 7955,
      "iß": 7956,
      "kern": 7957,
      "kün": 7958,
      "lass": 7959,
      "lern": 7960,
      "mund": 7961,
      "nir": 7962,
      "nup": 7963,
      "omen": 7964,
      "phr": 7965,
      "pti": 7966,
      "rene": 7967,
      "swer": 7968,
      "swag": 7969,
      "tun": 7970,
      "twould": 7971,
      "tiger": 7972,
      "yer": 7973,
      "ökon": 7974,
      "thread": 7975,
      "ermöglich": 7976,
      "envir": 7977,
      "inlaw": 7978,
      "angesehen": 7979,
      "chère": 7980,
      "andon": 7981,
      "atic": 7982,
      "stie": 7983,
      "itim": 7984,
      "reak": 7985,
      "meth": 7986,
      "bedien": 7987,
      "unver": 7988,
      "unfall": 7989,
      "unkindness": 7990,
      "haw": 7991,
      "depos": 7992,
      "devour": 7993,
      "ingt": 7994,
      "roof": 7995,
      "rowed": 7996,
      "usage": 7997,
      "entstanden": 7998,
      "race": 7999,
      "rack": 8000,
      "ravish": 8001,
      "geant": 8002,
      "teurs": 8003,
      "lden": 8004,
      "igna": 8005,
      "withstanding": 8006,
      "veran": 8007,
      "verty": 8008,
      "verband": 8009,
      "vermag": 8010,
      "verkauf": 8011,
      "amend": 8012,
      "amment": 8013,
      "negli": 8014,
      "hose": 8015,
      "hoben": 8016,
      "ric": 8017,
      "histoire": 8018,
      "peto": 8019,
      "dial": 8020,
      "diam": 8021,
      "manly": 8022,
      "adul": 8023,
      "poverty": 8024,
      "taine": 8025,
      "consp": 8026,
      "convers": 8027,
      "converse": 8028,
      "confeder": 8029,
      "moan": 8030,
      "shield": 8031,
      "bowel": 8032,
      "sah": 8033,
      "zugelassen": 8034,
      "goods": 8035,
      "cile": 8036,
      "tial": 8037,
      "marvell": 8038,
      "empor": 8039,
      "steiger": 8040,
      "abandon": 8041,
      "lub": 8042,
      "ausnahmen": 8043,
      "forehead": 8044,
      "mitte": 8045,
      "liefert": 8046,
      "vollen": 8047,
      "discord": 8048,
      "mustard": 8049,
      "offi": 8050,
      "elsin": 8051,
      "eltern": 8052,
      "treiben": 8053,
      "strö": 8054,
      "opport": 8055,
      "settled": 8056,
      "resem": 8057,
      "rested": 8058,
      "baren": 8059,
      "durchführung": 8060,
      "putting": 8061,
      "tales": 8062,
      "bedarf": 8063,
      "curr": 8064,
      "witwen": 8065,
      "surve": 8066,
      "surpris": 8067,
      "autour": 8068,
      "minius": 8069,
      "wäsch": 8070,
      "eleven": 8071,
      "dearer": 8072,
      "youngest": 8073,
      "commerce": 8074,
      "forthwith": 8075,
      "create": 8076,
      "deutscher": 8077,
      "pens": 8078,
      "gelang": 8079,
      "gleichfalls": 8080,
      "stool": 8081,
      "großindustrie": 8082,
      "reasonable": 8083,
      "sinon": 8084,
      "bona": 8085,
      "gebieten": 8086,
      "campe": 8087,
      "cambridge": 8088,
      "craves": 8089,
      "gesetzliche": 8090,
      "swearing": 8091,
      "dowry": 8092,
      "aires": 8093,
      "generation": 8094,
      "careful": 8095,
      "dangers": 8096,
      "promises": 8097,
      "promised": 8098,
      "lads": 8099,
      "doubtful": 8100,
      "sadness": 8101,
      "pipe": 8102,
      "175": 8103,
      "möglichst": 8104,
      "flaminius": 8105,
      "geistige": 8106,
      "pauvres": 8107,
      "kämp": 8108,
      "gestalten": 8109,
      "bedeutet": 8110,
      "erscheint": 8111,
      "italie": 8112,
      "souspréfet": 8113,
      "sufferance": 8114,
      "cornwall": 8115,
      "hideous": 8116,
      "tribune": 8117,
      "amorous": 8118,
      "bonds": 8119,
      "wager": 8120,
      "ztinnen": 8121,
      "sittlichen": 8122,
      "whipt": 8123,
      "piteous": 8124,
      "crowned": 8125,
      "strokes": 8126,
      "corrup": 8127,
      "dessin": 8128,
      "necessary": 8129,
      "greeting": 8130,
      "angenommen": 8131,
      "shrews": 8132,
      "gelegen": 8133,
      "quelquefois": 8134,
      "louis": 8135,
      "persönlichen": 8136,
      "conqueror": 8137,
      "prophet": 8138,
      "agree": 8139,
      "glauben": 8140,
      "sonntags": 8141,
      "dieselbe": 8142,
      "injuries": 8143,
      "prodigal": 8144,
      "corporal": 8145,
      "disguised": 8146,
      "heißt": 8147,
      "simpcox": 8148,
      "bewußtsein": 8149,
      "scruple": 8150,
      "critique": 8151,
      "character": 8152,
      "mutiny": 8153,
      "philario": 8154,
      "emanzipation": 8155,
      "merrily": 8156,
      "boulevard": 8157,
      "upright": 8158,
      "vorhanden": 8159,
      "valeria": 8160,
      "slumber": 8161,
      "likeness": 8162,
      "allmäh": 8163,
      "elsinore": 8164,
      "51": 8165,
      "73": 8166,
      "awak": 8167,
      "bieten": 8168,
      "cô": 8169,
      "cad": 8170,
      "dents": 8171,
      "egla": 8172,
      "fes": 8173,
      "fleur": 8174,
      "ftige": 8175,
      "gap": 8176,
      "hine": 8177,
      "ima": 8178,
      "ième": 8179,
      "jà": 8180,
      "lück": 8181,
      "mün": 8182,
      "nigh": 8183,
      "narrow": 8184,
      "oly": 8185,
      "oman": 8186,
      "pper": 8187,
      "pestil": 8188,
      "rin": 8189,
      "rings": 8190,
      "ront": 8191,
      "rons": 8192,
      "rupt": 8193,
      "sof": 8194,
      "tam": 8195,
      "tush": 8196,
      "ub": 8197,
      "vation": 8198,
      "wunder": 8199,
      "çon": 8200,
      "éra": 8201,
      "écla": 8202,
      "erungs": 8203,
      "inch": 8204,
      "infant": 8205,
      "anteil": 8206,
      "espe": 8207,
      "chaus": 8208,
      "chop": 8209,
      "chnet": 8210,
      "chape": 8211,
      "chorus": 8212,
      "atus": 8213,
      "iten": 8214,
      "reten": 8215,
      "behör": 8216,
      "seiden": 8217,
      "iez": 8218,
      "ietet": 8219,
      "deten": 8220,
      "defen": 8221,
      "heures": 8222,
      "entlohn": 8223,
      "myster": 8224,
      "wech": 8225,
      "alsa": 8226,
      "aloft": 8227,
      "geführt": 8228,
      "lag": 8229,
      "impatient": 8230,
      "imped": 8231,
      "notwithstanding": 8232,
      "verfol": 8233,
      "vergn": 8234,
      "amph": 8235,
      "fawn": 8236,
      "feind": 8237,
      "manne": 8238,
      "tenu": 8239,
      "tenant": 8240,
      "pox": 8241,
      "pope": 8242,
      "traten": 8243,
      "schl": 8244,
      "commis": 8245,
      "endes": 8246,
      "procès": 8247,
      "proclamation": 8248,
      "excur": 8249,
      "exécut": 8250,
      "peri": 8251,
      "perni": 8252,
      "shir": 8253,
      "lette": 8254,
      "cawd": 8255,
      "cabin": 8256,
      "outrage": 8257,
      "cially": 8258,
      "afar": 8259,
      "arbeitstag": 8260,
      "tired": 8261,
      "merk": 8262,
      "gier": 8263,
      "sergeant": 8264,
      "split": 8265,
      "dasein": 8266,
      "abge": 8267,
      "lucy": 8268,
      "sces": 8269,
      "plaint": 8270,
      "appli": 8271,
      "grade": 8272,
      "bache": 8273,
      "breeds": 8274,
      "vorzu": 8275,
      "charms": 8276,
      "ersatz": 8277,
      "dres": 8278,
      "corner": 8279,
      "gulden": 8280,
      "nightly": 8281,
      "brag": 8282,
      "hors": 8283,
      "garde": 8284,
      "garibal": 8285,
      "courteous": 8286,
      "freu": 8287,
      "freund": 8288,
      "distur": 8289,
      "armes": 8290,
      "wenches": 8291,
      "hasty": 8292,
      "presume": 8293,
      "iled": 8294,
      "dés": 8295,
      "déjà": 8296,
      "stillen": 8297,
      "deutlich": 8298,
      "reichstag": 8299,
      "itions": 8300,
      "carriage": 8301,
      "threaten": 8302,
      "volsces": 8303,
      "suffice": 8304,
      "englands": 8305,
      "dernier": 8306,
      "arbeitskräfte": 8307,
      "surety": 8308,
      "kontro": 8309,
      "jahrzehn": 8310,
      "losing": 8311,
      "wald": 8312,
      "kommun": 8313,
      "linge": 8314,
      "backs": 8315,
      "hume": 8316,
      "gelten": 8317,
      "gelern": 8318,
      "stole": 8319,
      "straw": 8320,
      "müh": 8321,
      "hourly": 8322,
      "heiraten": 8323,
      "gesetzlich": 8324,
      "painting": 8325,
      "linie": 8326,
      "soundly": 8327,
      "constancy": 8328,
      "frenchman": 8329,
      "fourteen": 8330,
      "digest": 8331,
      "troubles": 8332,
      "nämlich": 8333,
      "deutschlands": 8334,
      "lehrer": 8335,
      "relent": 8336,
      "130": 8337,
      "qualité": 8338,
      "marching": 8339,
      "messieurs": 8340,
      "wanting": 8341,
      "speeches": 8342,
      "schrän": 8343,
      "organisierten": 8344,
      "bestimmten": 8345,
      "softly": 8346,
      "vollkommen": 8347,
      "folgender": 8348,
      "häusern": 8349,
      "beaufort": 8350,
      "verbess": 8351,
      "flattery": 8352,
      "zweige": 8353,
      "middle": 8354,
      "mourning": 8355,
      "pflegt": 8356,
      "neighbours": 8357,
      "zeichen": 8358,
      "thino": 8359,
      "violence": 8360,
      "mäßige": 8361,
      "employment": 8362,
      "waiting": 8363,
      "äußeren": 8364,
      "funeral": 8365,
      "dürfen": 8366,
      "tutor": 8367,
      "cuckoo": 8368,
      "achtzehn": 8369,
      "rumour": 8370,
      "empfind": 8371,
      "ausgedehn": 8372,
      "französische": 8373,
      "verständnis": 8374,
      "regelung": 8375,
      "changes": 8376,
      "jährlich": 8377,
      "betrachtung": 8378,
      "vault": 8379,
      "traurigen": 8380,
      "puissance": 8381,
      "superflu": 8382,
      "unterdrückung": 8383,
      "unserer": 8384,
      "panthino": 8385,
      "abhängig": 8386,
      "patricians": 8387,
      "arrê": 8388,
      "sacrifice": 8389,
      "gewisser": 8390,
      "ergebnis": 8391,
      "marketplace": 8392,
      "tendenz": 8393,
      "babes": 8394,
      "sleeve": 8395,
      "lediglich": 8396,
      "sinews": 8397,
      "exploit": 8398,
      "semblance": 8399,
      "mägde": 8400,
      "laurence": 8401,
      "diseases": 8402,
      "gestattet": 8403,
      "history": 8404,
      "faulconbridge": 8405,
      "bowels": 8406,
      "campeius": 8407,
      "shrewsbury": 8408,
      "eglamour": 8409,
      "vergnü": 8410,
      "pernicious": 8411,
      "cawdor": 8412,
      "42": 8413,
      "450": 8414,
      "awe": 8415,
      "axe": 8416,
      "bate": 8417,
      "cœ": 8418,
      "cau": 8419,
      "digkeit": 8420,
      "dès": 8421,
      "gust": 8422,
      "gird": 8423,
      "gorge": 8424,
      "kong": 8425,
      "msten": 8426,
      "nherein": 8427,
      "rites": 8428,
      "sinc": 8429,
      "vend": 8430,
      "ziger": 8431,
      "ält": 8432,
      "ète": 8433,
      "éton": 8434,
      "üben": 8435,
      "erwar": 8436,
      "enf": 8437,
      "ini": 8438,
      "infection": 8439,
      "infected": 8440,
      "anfän": 8441,
      "oubli": 8442,
      "issu": 8443,
      "isation": 8444,
      "atil": 8445,
      "itts": 8446,
      "regre": 8447,
      "bethink": 8448,
      "bekö": 8449,
      "begeg": 8450,
      "unjust": 8451,
      "nobler": 8452,
      "ases": 8453,
      "ingrate": 8454,
      "rogues": 8455,
      "lily": 8456,
      "livery": 8457,
      "rages": 8458,
      "wegs": 8459,
      "gewi": 8460,
      "gewissen": 8461,
      "macher": 8462,
      "mamill": 8463,
      "keys": 8464,
      "vermo": 8465,
      "verheiratete": 8466,
      "gossi": 8467,
      "amour": 8468,
      "ridi": 8469,
      "ckt": 8470,
      "heran": 8471,
      "herzen": 8472,
      "willen": 8473,
      "unglück": 8474,
      "sujet": 8475,
      "admire": 8476,
      "antique": 8477,
      "trun": 8478,
      "tried": 8479,
      "schick": 8480,
      "contend": 8481,
      "pru": 8482,
      "pren": 8483,
      "procule": 8484,
      "extra": 8485,
      "indu": 8486,
      "seln": 8487,
      "sahen": 8488,
      "sails": 8489,
      "caus": 8490,
      "caps": 8491,
      "genuß": 8492,
      "marqu": 8493,
      "brass": 8494,
      "canker": 8495,
      "frieden": 8496,
      "frighted": 8497,
      "mers": 8498,
      "glän": 8499,
      "dage": 8500,
      "ably": 8501,
      "abgesehen": 8502,
      "mish": 8503,
      "mischance": 8504,
      "ausgeschlossen": 8505,
      "parent": 8506,
      "mittag": 8507,
      "voit": 8508,
      "dismal": 8509,
      "baby": 8510,
      "breth": 8511,
      "jot": 8512,
      "vornherein": 8513,
      "execute": 8514,
      "counsell": 8515,
      "bliss": 8516,
      "plent": 8517,
      "plut": 8518,
      "fortschrit": 8519,
      "intents": 8520,
      "braken": 8521,
      "übersch": 8522,
      "courses": 8523,
      "courtez": 8524,
      "passe": 8525,
      "hatch": 8526,
      "flü": 8527,
      "flint": 8528,
      "crimes": 8529,
      "everlasting": 8530,
      "buzz": 8531,
      "begab": 8532,
      "witwe": 8533,
      "trug": 8534,
      "juge": 8535,
      "judas": 8536,
      "election": 8537,
      "soldats": 8538,
      "bringt": 8539,
      "restor": 8540,
      "gegensatz": 8541,
      "seines": 8542,
      "capti": 8543,
      "titles": 8544,
      "itié": 8545,
      "playing": 8546,
      "ventur": 8547,
      "passé": 8548,
      "répon": 8549,
      "oblig": 8550,
      "sym": 8551,
      "symp": 8552,
      "confident": 8553,
      "machten": 8554,
      "backward": 8555,
      "hausfrauen": 8556,
      "attends": 8557,
      "chosen": 8558,
      "stuck": 8559,
      "beating": 8560,
      "bondage": 8561,
      "heirats": 8562,
      "worthiness": 8563,
      "miles": 8564,
      "careless": 8565,
      "étais": 8566,
      "beseem": 8567,
      "deserts": 8568,
      "deserved": 8569,
      "magas": 8570,
      "sights": 8571,
      "trieb": 8572,
      "leonatus": 8573,
      "bounds": 8574,
      "prosperous": 8575,
      "gallows": 8576,
      "länger": 8577,
      "gesellen": 8578,
      "allgemein": 8579,
      "moonshine": 8580,
      "langsam": 8581,
      "mountains": 8582,
      "vanity": 8583,
      "grieves": 8584,
      "menschheit": 8585,
      "privat": 8586,
      "hausindustriellen": 8587,
      "crois": 8588,
      "stirring": 8589,
      "trespass": 8590,
      "setzte": 8591,
      "montjoy": 8592,
      "scorns": 8593,
      "chaque": 8594,
      "beastly": 8595,
      "kampfes": 8596,
      "génie": 8597,
      "klärung": 8598,
      "außerhalb": 8599,
      "continu": 8600,
      "cruelty": 8601,
      "amerikan": 8602,
      "verheiratet": 8603,
      "besser": 8604,
      "bessere": 8605,
      "journaux": 8606,
      "dainty": 8607,
      "hielt": 8608,
      "tyrrel": 8609,
      "gilded": 8610,
      "profession": 8611,
      "apothe": 8612,
      "städte": 8613,
      "servilius": 8614,
      "körperlichen": 8615,
      "litter": 8616,
      "muff": 8617,
      "divided": 8618,
      "fixed": 8619,
      "aerztinnen": 8620,
      "extreme": 8621,
      "abhorson": 8622,
      "handelsangestellten": 8623,
      "filthy": 8624,
      "miseries": 8625,
      "sechzehn": 8626,
      "punishment": 8627,
      "scharen": 8628,
      "guests": 8629,
      "nouvelle": 8630,
      "rising": 8631,
      "gelehrten": 8632,
      "attach": 8633,
      "intéress": 8634,
      "zentral": 8635,
      "candle": 8636,
      "concerns": 8637,
      "gefunden": 8638,
      "mongst": 8639,
      "chastity": 8640,
      "gefahren": 8641,
      "rheum": 8642,
      "kirche": 8643,
      "exemple": 8644,
      "achieve": 8645,
      "coronation": 8646,
      "estimation": 8647,
      "üsse": 8648,
      "mouldy": 8649,
      "prophesy": 8650,
      "snatch": 8651,
      "perpetual": 8652,
      "nuptial": 8653,
      "excursions": 8654,
      "beköst": 8655,
      "mamillius": 8656,
      "proculeius": 8657,
      "brakenbury": 8658,
      "63": 8659,
      "67": 8660,
      "83": 8661,
      "avou": 8662,
      "ailleurs": 8663,
      "cart": 8664,
      "dä": 8665,
      "eats": 8666,
      "fiel": 8667,
      "fuß": 8668,
      "gatt": 8669,
      "ium": 8670,
      "iques": 8671,
      "jan": 8672,
      "ky": 8673,
      "lon": 8674,
      "lter": 8675,
      "pind": 8676,
      "pang": 8677,
      "rats": 8678,
      "uish": 8679,
      "vat": 8680,
      "vast": 8681,
      "wü": 8682,
      "erwä": 8683,
      "erlau": 8684,
      "ermöglichen": 8685,
      "infir": 8686,
      "intended": 8687,
      "indifferent": 8688,
      "escape": 8689,
      "itäts": 8690,
      "rele": 8691,
      "reus": 8692,
      "regent": 8693,
      "removed": 8694,
      "toi": 8695,
      "metellus": 8696,
      "bead": 8697,
      "bezir": 8698,
      "unseen": 8699,
      "nobody": 8700,
      "separ": 8701,
      "seigne": 8702,
      "deth": 8703,
      "defi": 8704,
      "associ": 8705,
      "heal": 8706,
      "hedge": 8707,
      "hebung": 8708,
      "liar": 8709,
      "lique": 8710,
      "libre": 8711,
      "entsprechen": 8712,
      "alty": 8713,
      "gezählt": 8714,
      "maison": 8715,
      "maker": 8716,
      "sober": 8717,
      "loser": 8718,
      "locks": 8719,
      "impart": 8720,
      "iments": 8721,
      "impatience": 8722,
      "imony": 8723,
      "notwen": 8724,
      "verach": 8725,
      "verlassen": 8726,
      "verdanken": 8727,
      "ichtet": 8728,
      "allay": 8729,
      "quity": 8730,
      "ample": 8731,
      "aye": 8732,
      "nept": 8733,
      "hohen": 8734,
      "butt": 8735,
      "histor": 8736,
      "ilder": 8737,
      "favor": 8738,
      "feld": 8739,
      "manche": 8740,
      "tak": 8741,
      "tavern": 8742,
      "prés": 8743,
      "thyreus": 8744,
      "mocks": 8745,
      "exact": 8746,
      "perse": 8747,
      "perjury": 8748,
      "sagen": 8749,
      "einrichtung": 8750,
      "werfen": 8751,
      "gende": 8752,
      "sith": 8753,
      "sies": 8754,
      "embra": 8755,
      "abbey": 8756,
      "epilo": 8757,
      "mische": 8758,
      "mistrust": 8759,
      "mistook": 8760,
      "parad": 8761,
      "scarus": 8762,
      "handsome": 8763,
      "broad": 8764,
      "opér": 8765,
      "iteur": 8766,
      "priz": 8767,
      "garn": 8768,
      "riche": 8769,
      "richer": 8770,
      "kenn": 8771,
      "bestand": 8772,
      "retir": 8773,
      "matin": 8774,
      "pourrait": 8775,
      "nachläss": 8776,
      "années": 8777,
      "défaut": 8778,
      "burial": 8779,
      "lived": 8780,
      "sentiment": 8781,
      "surfeit": 8782,
      "purge": 8783,
      "borrowed": 8784,
      "restore": 8785,
      "beneath": 8786,
      "commends": 8787,
      "sleben": 8788,
      "harbour": 8789,
      "mothers": 8790,
      "silk": 8791,
      "droop": 8792,
      "cero": 8793,
      "salute": 8794,
      "ktions": 8795,
      "gleichberechtigung": 8796,
      "chois": 8797,
      "couleur": 8798,
      "zahlreiche": 8799,
      "paint": 8800,
      "nearer": 8801,
      "lenoir": 8802,
      "könnten": 8803,
      "milieu": 8804,
      "meddle": 8805,
      "summe": 8806,
      "sickly": 8807,
      "skull": 8808,
      "instinct": 8809,
      "saved": 8810,
      "chronic": 8811,
      "relish": 8812,
      "plainly": 8813,
      "blessings": 8814,
      "betrachtet": 8815,
      "feuillet": 8816,
      "shoes": 8817,
      "excellence": 8818,
      "gingen": 8819,
      "duties": 8820,
      "wohnungs": 8821,
      "mannerly": 8822,
      "gestal": 8823,
      "mantle": 8824,
      "mitteln": 8825,
      "vanqu": 8826,
      "anointed": 8827,
      "modeste": 8828,
      "stirr": 8829,
      "größere": 8830,
      "beschäftigen": 8831,
      "kolle": 8832,
      "legions": 8833,
      "müsse": 8834,
      "albany": 8835,
      "erzieher": 8836,
      "hilfs": 8837,
      "produce": 8838,
      "produktion": 8839,
      "transform": 8840,
      "treasons": 8841,
      "errand": 8842,
      "berufsthätigkeit": 8843,
      "kräften": 8844,
      "medicine": 8845,
      "issement": 8846,
      "wirklich": 8847,
      "philipp": 8848,
      "smoke": 8849,
      "executed": 8850,
      "selbständig": 8851,
      "bully": 8852,
      "departure": 8853,
      "succession": 8854,
      "krankenversicherung": 8855,
      "persuaded": 8856,
      "nymph": 8857,
      "prozent": 8858,
      "shrie": 8859,
      "delights": 8860,
      "schnell": 8861,
      "pflicht": 8862,
      "blushing": 8863,
      "substit": 8864,
      "conseil": 8865,
      "invite": 8866,
      "légis": 8867,
      "strangers": 8868,
      "instruction": 8869,
      "stärker": 8870,
      "péri": 8871,
      "charakterist": 8872,
      "munici": 8873,
      "balls": 8874,
      "gewährt": 8875,
      "pouvait": 8876,
      "guiltless": 8877,
      "jährigen": 8878,
      "prevented": 8879,
      "voraussetzung": 8880,
      "observation": 8881,
      "bootless": 8882,
      "stündige": 8883,
      "coxcomb": 8884,
      "contempl": 8885,
      "commence": 8886,
      "affliction": 8887,
      "destiny": 8888,
      "ambassadors": 8889,
      "abhängigkeit": 8890,
      "experience": 8891,
      "integr": 8892,
      "solidar": 8893,
      "control": 8894,
      "barbarous": 8895,
      "balthas": 8896,
      "hätte": 8897,
      "hätten": 8898,
      "assured": 8899,
      "liquor": 8900,
      "immediately": 8901,
      "meinung": 8902,
      "compagnie": 8903,
      "ursprün": 8904,
      "besoin": 8905,
      "despise": 8906,
      "habits": 8907,
      "scandal": 8908,
      "tribunal": 8909,
      "vassal": 8910,
      "ancestors": 8911,
      "quintus": 8912,
      "sufficient": 8913,
      "verteid": 8914,
      "boatswain": 8915,
      "ergänzung": 8916,
      "acknowledge": 8917,
      "haupts": 8918,
      "scholar": 8919,
      "anspruch": 8920,
      "merciful": 8921,
      "ökono": 8922,
      "environ": 8923,
      "garibaldi": 8924,
      "beköstigung": 8925,
      "pindarus": 8926,
      "notwendige": 8927,
      "116": 8928,
      "700": 8929,
      "85": 8930,
      "91": 8931,
      "bü": 8932,
      "cune": 8933,
      "cull": 8934,
      "dichter": 8935,
      "ec": 8936,
      "eau": 8937,
      "eaten": 8938,
      "ebb": 8939,
      "font": 8940,
      "gas": 8941,
      "gne": 8942,
      "hides": 8943,
      "iving": 8944,
      "ival": 8945,
      "klo": 8946,
      "linen": 8947,
      "lorn": 8948,
      "listen": 8949,
      "mum": 8950,
      "nit": 8951,
      "omit": 8952,
      "pine": 8953,
      "pant": 8954,
      "rè": 8955,
      "rises": 8956,
      "sif": 8957,
      "vap": 8958,
      "zweit": 8959,
      "îtres": 8960,
      "erde": 8961,
      "erfind": 8962,
      "erör": 8963,
      "enfin": 8964,
      "enmity": 8965,
      "inut": 8966,
      "anks": 8967,
      "orious": 8968,
      "arbit": 8969,
      "theor": 8970,
      "states": 8971,
      "reap": 8972,
      "reux": 8973,
      "toad": 8974,
      "untimely": 8975,
      "nomin": 8976,
      "noblest": 8977,
      "sept": 8978,
      "seien": 8979,
      "haven": 8980,
      "haute": 8981,
      "dep": 8982,
      "rog": 8983,
      "rocks": 8984,
      "forman": 8985,
      "lihood": 8986,
      "raft": 8987,
      "rags": 8988,
      "raging": 8989,
      "weed": 8990,
      "utmost": 8991,
      "gewohn": 8992,
      "gegangen": 8993,
      "thatsachen": 8994,
      "erez": 8995,
      "soe": 8996,
      "tele": 8997,
      "coal": 8998,
      "lame": 8999,
      "lace": 9000,
      "loses": 9001,
      "imal": 9002,
      "vermehr": 9003,
      "verbreit": 9004,
      "verlangen": 9005,
      "vernachläss": 9006,
      "terinnen": 9007,
      "quill": 9008,
      "quake": 9009,
      "aub": 9010,
      "aments": 9011,
      "peach": 9012,
      "mankind": 9013,
      "sullen": 9014,
      "sustain": 9015,
      "adore": 9016,
      "address": 9017,
      "tagen": 9018,
      "taint": 9019,
      "tables": 9020,
      "consu": 9021,
      "conta": 9022,
      "conjur": 9023,
      "prê": 9024,
      "mop": 9025,
      "umwand": 9026,
      "cts": 9027,
      "excus": 9028,
      "expense": 9029,
      "performan": 9030,
      "bol": 9031,
      "upbra": 9032,
      "lettres": 9033,
      "sain": 9034,
      "caution": 9035,
      "einst": 9036,
      "vien": 9037,
      "genie": 9038,
      "cicero": 9039,
      "sheets": 9040,
      "affected": 9041,
      "fray": 9042,
      "mardian": 9043,
      "brü": 9044,
      "moreover": 9045,
      "cannon": 9046,
      "canidius": 9047,
      "ansprü": 9048,
      "gru": 9049,
      "giant": 9050,
      "foi": 9051,
      "pledge": 9052,
      "demselben": 9053,
      "suchten": 9054,
      "parson": 9055,
      "parents": 9056,
      "wered": 9057,
      "änden": 9058,
      "assault": 9059,
      "lief": 9060,
      "apply": 9061,
      "april": 9062,
      "disorder": 9063,
      "distemper": 9064,
      "grad": 9065,
      "bagot": 9066,
      "vorgesch": 9067,
      "vorteil": 9068,
      "vorsicht": 9069,
      "vorkämpf": 9070,
      "charitable": 9071,
      "counted": 9072,
      "hearse": 9073,
      "brauch": 9074,
      "richten": 9075,
      "accompl": 9076,
      "unterbrochen": 9077,
      "rief": 9078,
      "freier": 9079,
      "vaient": 9080,
      "flute": 9081,
      "crut": 9082,
      "matière": 9083,
      "pourra": 9084,
      "patron": 9085,
      "drag": 9086,
      "dauer": 9087,
      "persons": 9088,
      "household": 9089,
      "surtout": 9090,
      "auteur": 9091,
      "minster": 9092,
      "minded": 9093,
      "evening": 9094,
      "soldat": 9095,
      "rub": 9096,
      "ledigen": 9097,
      "volk": 9098,
      "doug": 9099,
      "caphis": 9100,
      "brid": 9101,
      "passions": 9102,
      "tubal": 9103,
      "belgien": 9104,
      "hush": 9105,
      "strick": 9106,
      "strict": 9107,
      "penance": 9108,
      "hausfrau": 9109,
      "holp": 9110,
      "mädchenschulen": 9111,
      "heiten": 9112,
      "stake": 9113,
      "sinne": 9114,
      "hangman": 9115,
      "windows": 9116,
      "führten": 9117,
      "appeal": 9118,
      "fighting": 9119,
      "milford": 9120,
      "lohnarbeit": 9121,
      "niemals": 9122,
      "chambre": 9123,
      "tels": 9124,
      "étaire": 9125,
      "beseit": 9126,
      "speedy": 9127,
      "engage": 9128,
      "wearing": 9129,
      "profane": 9130,
      "countryman": 9131,
      "bildungs": 9132,
      "ladder": 9133,
      "flock": 9134,
      "suitors": 9135,
      "dreamt": 9136,
      "fabrikarbeit": 9137,
      "leading": 9138,
      "rechnung": 9139,
      "dancing": 9140,
      "verschlossen": 9141,
      "westminster": 9142,
      "allerdings": 9143,
      "velvet": 9144,
      "hypo": 9145,
      "bestimmt": 9146,
      "vari": 9147,
      "legte": 9148,
      "flattering": 9149,
      "demands": 9150,
      "albans": 9151,
      "briefly": 9152,
      "zählungen": 9153,
      "continent": 9154,
      "drift": 9155,
      "spitze": 9156,
      "kreise": 9157,
      "circle": 9158,
      "aloof": 9159,
      "advok": 9160,
      "phoe": 9161,
      "practise": 9162,
      "schlechten": 9163,
      "beschränkung": 9164,
      "œuvres": 9165,
      "schlag": 9166,
      "crows": 9167,
      "frowns": 9168,
      "kinsmen": 9169,
      "martius": 9170,
      "wachsende": 9171,
      "grossly": 9172,
      "hunting": 9173,
      "bending": 9174,
      "consequence": 9175,
      "greece": 9176,
      "chefd": 9177,
      "müßten": 9178,
      "ballad": 9179,
      "pouvoir": 9180,
      "schwanger": 9181,
      "nouveau": 9182,
      "rouen": 9183,
      "millionen": 9184,
      "puissant": 9185,
      "corruption": 9186,
      "musician": 9187,
      "wissenschaftlichen": 9188,
      "entwickelte": 9189,
      "durchschnittlich": 9190,
      "plaisir": 9191,
      "drängt": 9192,
      "entrance": 9193,
      "unterrichts": 9194,
      "exposé": 9195,
      "emprun": 9196,
      "montrer": 9197,
      "travaill": 9198,
      "devotion": 9199,
      "schweiz": 9200,
      "solicit": 9201,
      "tragedy": 9202,
      "rebuke": 9203,
      "keineswegs": 9204,
      "ausbreitung": 9205,
      "precedent": 9206,
      "conservatoire": 9207,
      "diamond": 9208,
      "bachelor": 9209,
      "brethren": 9210,
      "courtezan": 9211,
      "neptune": 9212,
      "epilogue": 9213,
      "integrity": 9214,
      "balthasar": 9215,
      "hauptsächlich": 9216,
      "64": 9217,
      "800": 9218,
      "aem": 9219,
      "aster": 9220,
      "ajou": 9221,
      "bod": 9222,
      "bio": 9223,
      "bier": 9224,
      "bietet": 9225,
      "coff": 9226,
      "cals": 9227,
      "dus": 9228,
      "dgel": 9229,
      "evi": 9230,
      "galt": 9231,
      "iver": 9232,
      "jor": 9233,
      "jardin": 9234,
      "kla": 9235,
      "lof": 9236,
      "lings": 9237,
      "liness": 9238,
      "nourish": 9239,
      "oked": 9240,
      "pir": 9241,
      "pfe": 9242,
      "pous": 9243,
      "rer": 9244,
      "slo": 9245,
      "sund": 9246,
      "sang": 9247,
      "wun": 9248,
      "ât": 9249,
      "äher": 9250,
      "ènes": 9251,
      "énor": 9252,
      "öpf": 9253,
      "thä": 9254,
      "encount": 9255,
      "ensemble": 9256,
      "inal": 9257,
      "angi": 9258,
      "anjou": 9259,
      "issent": 9260,
      "orig": 9261,
      "orten": 9262,
      "chest": 9263,
      "chers": 9264,
      "theit": 9265,
      "llement": 9266,
      "attain": 9267,
      "itus": 9268,
      "reports": 9269,
      "leather": 9270,
      "leisten": 9271,
      "toe": 9272,
      "beim": 9273,
      "beein": 9274,
      "unch": 9275,
      "hale": 9276,
      "haber": 9277,
      "hallo": 9278,
      "haught": 9279,
      "degre": 9280,
      "asc": 9281,
      "assay": 9282,
      "veur": 9283,
      "veil": 9284,
      "forlorn": 9285,
      "lière": 9286,
      "limb": 9287,
      "rape": 9288,
      "alms": 9289,
      "gets": 9290,
      "gemü": 9291,
      "mache": 9292,
      "lauf": 9293,
      "loin": 9294,
      "immen": 9295,
      "imprim": 9296,
      "dole": 9297,
      "verder": 9298,
      "verwendung": 9299,
      "vermögen": 9300,
      "diet": 9301,
      "ette": 9302,
      "quali": 9303,
      "auge": 9304,
      "hohe": 9305,
      "holi": 9306,
      "holt": 9307,
      "riers": 9308,
      "faute": 9309,
      "female": 9310,
      "suiv": 9311,
      "sham": 9312,
      "shames": 9313,
      "added": 9314,
      "edu": 9315,
      "schär": 9316,
      "compos": 9317,
      "prom": 9318,
      "extend": 9319,
      "excess": 9320,
      "exclaim": 9321,
      "perce": 9322,
      "permit": 9323,
      "sap": 9324,
      "sale": 9325,
      "safer": 9326,
      "sagte": 9327,
      "womöglich": 9328,
      "einschrän": 9329,
      "worten": 9330,
      "outs": 9331,
      "wasser": 9332,
      "frais": 9333,
      "tile": 9334,
      "gesin": 9335,
      "merch": 9336,
      "mercur": 9337,
      "spa": 9338,
      "dahin": 9339,
      "abund": 9340,
      "absur": 9341,
      "mise": 9342,
      "gery": 9343,
      "cesario": 9344,
      "paar": 9345,
      "aph": 9346,
      "dash": 9347,
      "dissem": 9348,
      "grain": 9349,
      "sennet": 9350,
      "wirken": 9351,
      "insofern": 9352,
      "pregnant": 9353,
      "blin": 9354,
      "partner": 9355,
      "parties": 9356,
      "guill": 9357,
      "longing": 9358,
      "fulvia": 9359,
      "horrid": 9360,
      "garment": 9361,
      "idet": 9362,
      "accursed": 9363,
      "ksamkeit": 9364,
      "barkeit": 9365,
      "rieb": 9366,
      "wring": 9367,
      "hates": 9368,
      "crush": 9369,
      "pattern": 9370,
      "ppen": 9371,
      "décret": 9372,
      "wachen": 9373,
      "psy": 9374,
      "här": 9375,
      "geschäft": 9376,
      "julius": 9377,
      "survey": 9378,
      "minion": 9379,
      "minable": 9380,
      "compound": 9381,
      "purg": 9382,
      "ruth": 9383,
      "bringing": 9384,
      "wurf": 9385,
      "restra": 9386,
      "weiblich": 9387,
      "volkes": 9388,
      "sitzen": 9389,
      "mehrzahl": 9390,
      "harvest": 9391,
      "bandit": 9392,
      "mindest": 9393,
      "rée": 9394,
      "rés": 9395,
[...]
